{
  "version": "1.0",
  "truncation": null,
  "padding": null,
  "added_tokens": [
    {
      "id": 0,
      "content": "[PAD]",
      "single_word": false,
      "lstrip": false,
      "rstrip": false,
      "normalized": false,
      "special": true
    },
    {
      "id": 1,
      "content": "[UNK]",
      "single_word": false,
      "lstrip": false,
      "rstrip": false,
      "normalized": false,
      "special": true
    },
    {
      "id": 2,
      "content": "[SOS]",
      "single_word": false,
      "lstrip": false,
      "rstrip": false,
      "normalized": false,
      "special": true
    },
    {
      "id": 3,
      "content": "[EOS]",
      "single_word": false,
      "lstrip": false,
      "rstrip": false,
      "normalized": false,
      "special": true
    }
  ],
  "normalizer": null,
  "pre_tokenizer": {
    "type": "Whitespace"
  },
  "post_processor": {
    "type": "TemplateProcessing",
    "single": [
      {
        "SpecialToken": {
          "id": "[SOS]",
          "type_id": 0
        }
      },
      {
        "Sequence": {
          "id": "A",
          "type_id": 0
        }
      },
      {
        "SpecialToken": {
          "id": "[EOS]",
          "type_id": 0
        }
      }
    ],
    "pair": [
      {
        "SpecialToken": {
          "id": "[SOS]",
          "type_id": 0
        }
      },
      {
        "Sequence": {
          "id": "A",
          "type_id": 0
        }
      },
      {
        "SpecialToken": {
          "id": "[EOS]",
          "type_id": 0
        }
      },
      {
        "SpecialToken": {
          "id": "[SOS]",
          "type_id": 0
        }
      },
      {
        "Sequence": {
          "id": "B",
          "type_id": 0
        }
      },
      {
        "SpecialToken": {
          "id": "[EOS]",
          "type_id": 0
        }
      }
    ],
    "special_tokens": {
      "[EOS]": {
        "id": "[EOS]",
        "ids": [
          3
        ],
        "tokens": [
          "[EOS]"
        ]
      },
      "[SOS]": {
        "id": "[SOS]",
        "ids": [
          2
        ],
        "tokens": [
          "[SOS]"
        ]
      }
    }
  },
  "decoder": null,
  "model": {
    "type": "BPE",
    "dropout": null,
    "unk_token": "[UNK]",
    "continuing_subword_prefix": null,
    "end_of_word_suffix": null,
    "fuse_unk": false,
    "byte_fallback": false,
    "ignore_merges": false,
    "vocab": {
      "[PAD]": 0,
      "[UNK]": 1,
      "[SOS]": 2,
      "[EOS]": 3,
      ".": 4,
      "0": 5,
      "1": 6,
      "2": 7,
      "3": 8,
      "4": 9,
      "5": 10,
      "6": 11,
      "7": 12,
      "8": 13,
      "9": 14,
      "A": 15,
      "B": 16,
      "C": 17,
      "D": 18,
      "E": 19,
      "F": 20,
      "G": 21,
      "H": 22,
      "I": 23,
      "J": 24,
      "K": 25,
      "L": 26,
      "M": 27,
      "N": 28,
      "O": 29,
      "P": 30,
      "Q": 31,
      "R": 32,
      "S": 33,
      "T": 34,
      "V": 35,
      "W": 36,
      "X": 37,
      "Y": 38,
      "Z": 39,
      "a": 40,
      "b": 41,
      "c": 42,
      "d": 43,
      "e": 44,
      "f": 45,
      "g": 46,
      "h": 47,
      "i": 48,
      "j": 49,
      "k": 50,
      "l": 51,
      "m": 52,
      "n": 53,
      "o": 54,
      "p": 55,
      "q": 56,
      "r": 57,
      "s": 58,
      "t": 59,
      "u": 60,
      "v": 61,
      "w": 62,
      "x": 63,
      "y": 64,
      "z": 65,
      "er": 66,
      "of": 67,
      "in": 68,
      "en": 69,
      "on": 70,
      "ed": 71,
      "ac": 72,
      "un": 73,
      "al": 74,
      "th": 75,
      "re": 76,
      "sp": 77,
      "ti": 78,
      "ec": 79,
      "an": 80,
      "fi": 81,
      "le": 82,
      "or": 83,
      "ter": 84,
      "tu": 85,
      "se": 86,
      "ture": 87,
      "rac": 88,
      "ifi": 89,
      "co": 90,
      "ified": 91,
      "ar": 92,
      "spec": 93,
      "racture": 94,
      "specified": 95,
      "fracture": 96,
      "unspecified": 97,
      "ri": 98,
      "di": 99,
      "ent": 100,
      "coun": 101,
      "counter": 102,
      "encounter": 103,
      "qu": 104,
      "ing": 105,
      "su": 106,
      "sequ": 107,
      "el": 108,
      "wi": 109,
      "with": 110,
      "ft": 111,
      "ic": 112,
      "ur": 113,
      "ther": 114,
      "si": 115,
      "st": 116,
      "tion": 117,
      "and": 118,
      "other": 119,
      "lac": 120,
      "ra": 121,
      "gh": 122,
      "sub": 123,
      "ght": 124,
      "ro": 125,
      "lo": 126,
      "left": 127,
      "right": 128,
      "us": 129,
      "ul": 130,
      "sequent": 131,
      "subsequent": 132,
      "disp": 133,
      "displac": 134,
      "displaced": 135,
      "to": 136,
      "es": 137,
      "non": 138,
      "for": 139,
      "ation": 140,
      "li": 141,
      "ci": 142,
      "iti": 143,
      "ii": 144,
      "op": 145,
      "at": 146,
      "he": 147,
      "de": 148,
      "inj": 149,
      "um": 150,
      "ela": 151,
      "injur": 152,
      "fo": 153,
      "ut": 154,
      "as": 155,
      "initi": 156,
      "sion": 157,
      "initial": 158,
      "per": 159,
      "tic": 160,
      "sequela": 161,
      "em": 162,
      "tra": 163,
      "ty": 164,
      "ph": 165,
      "sh": 166,
      "bo": 167,
      "ve": 168,
      "ot": 169,
      "bi": 170,
      "ten": 171,
      "nondisplaced": 172,
      "arm": 173,
      "dy": 174,
      "mal": 175,
      "te": 176,
      "der": 177,
      "la": 178,
      "con": 179,
      "po": 180,
      "low": 181,
      "up": 182,
      "pe": 183,
      "injury": 184,
      "gn": 185,
      "cid": 186,
      "cident": 187,
      "id": 188,
      "accident": 189,
      "ma": 190,
      "type": 191,
      "ver": 192,
      "open": 193,
      "ex": 194,
      "ch": 195,
      "ect": 196,
      "mp": 197,
      "lower": 198,
      "is": 199,
      "ion": 200,
      "fore": 201,
      "ge": 202,
      "ne": 203,
      "ab": 204,
      "sha": 205,
      "shaft": 206,
      "na": 207,
      "by": 208,
      "out": 209,
      "et": 210,
      "sis": 211,
      "il": 212,
      "gre": 213,
      "cle": 214,
      "ical": 215,
      "min": 216,
      "vel": 217,
      "ign": 218,
      "fem": 219,
      "ass": 220,
      "eration": 221,
      "level": 222,
      "ant": 223,
      "injured": 224,
      "heal": 225,
      "end": 226,
      "pro": 227,
      "healing": 228,
      "ol": 229,
      "body": 230,
      "fing": 231,
      "finger": 232,
      "ir": 233,
      "col": 234,
      "du": 235,
      "ca": 236,
      "hand": 237,
      "iii": 238,
      "dis": 239,
      "tr": 240,
      "union": 241,
      "femur": 242,
      "ff": 243,
      "leg": 244,
      "ine": 245,
      "one": 246,
      "mus": 247,
      "los": 248,
      "ary": 249,
      "without": 250,
      "S6": 251,
      "the": 252,
      "11": 253,
      "foot": 254,
      "ffect": 255,
      "ular": 256,
      "cor": 257,
      "ffi": 258,
      "ath": 259,
      "colli": 260,
      "ous": 261,
      "muscle": 262,
      "ffic": 263,
      "collision": 264,
      "uma": 265,
      "traffic": 266,
      "foreign": 267,
      "icle": 268,
      "degre": 269,
      "degree": 270,
      "ad": 271,
      "laceration": 272,
      "82": 273,
      "par": 274,
      "52": 275,
      "12": 276,
      "cy": 277,
      "sy": 278,
      "veh": 279,
      "effect": 280,
      "tibi": 281,
      "ison": 282,
      "radi": 283,
      "vehicle": 284,
      "int": 285,
      "cer": 286,
      "comp": 287,
      "wri": 288,
      "wrist": 289,
      "upper": 290,
      "don": 291,
      "tern": 292,
      "tis": 293,
      "pre": 294,
      "phy": 295,
      "tional": 296,
      "poison": 297,
      "poisoning": 298,
      "tendon": 299,
      "all": 300,
      "02": 301,
      "due": 302,
      "inten": 303,
      "intentional": 304,
      "ternal": 305,
      "XX": 306,
      "tran": 307,
      "ru": 308,
      "oc": 309,
      "ey": 310,
      "clos": 311,
      "closed": 312,
      "alan": 313,
      "bur": 314,
      "ond": 315,
      "vi": 316,
      "ce": 317,
      "ase": 318,
      "42": 319,
      "hi": 320,
      "92": 321,
      "ment": 322,
      "met": 323,
      "tox": 324,
      "cl": 325,
      "car": 326,
      "32": 327,
      "S7": 328,
      "bone": 329,
      "trauma": 330,
      "sel": 331,
      "tibia": 332,
      "radius": 333,
      "toxic": 334,
      "om": 335,
      "rom": 336,
      "traumatic": 337,
      "ess": 338,
      "oul": 339,
      "sec": 340,
      "shoul": 341,
      "shoulder": 342,
      "inf": 343,
      "it": 344,
      "und": 345,
      "hum": 346,
      "os": 347,
      "seal": 348,
      "rim": 349,
      "ulna": 350,
      "ank": 351,
      "wo": 352,
      "01": 353,
      "31": 354,
      "humer": 355,
      "lic": 356,
      "S82": 357,
      "sal": 358,
      "yed": 359,
      "second": 360,
      "dela": 361,
      "delayed": 362,
      "ankle": 363,
      "gical": 364,
      "jo": 365,
      "rout": 366,
      "routine": 367,
      "joint": 368,
      "gen": 369,
      "nonunion": 370,
      "otor": 371,
      "burn": 372,
      "teral": 373,
      "physeal": 374,
      "22": 375,
      "motor": 376,
      "lateral": 377,
      "cia": 378,
      "ob": 379,
      "teri": 380,
      "humerus": 381,
      "fas": 382,
      "eye": 383,
      "umb": 384,
      "ron": 385,
      "path": 386,
      "order": 387,
      "ven": 388,
      "fascia": 389,
      "mi": 390,
      "disorder": 391,
      "S52": 392,
      "rain": 393,
      "phalan": 394,
      "ird": 395,
      "tus": 396,
      "sease": 397,
      "disease": 398,
      "corro": 399,
      "ost": 400,
      "fici": 401,
      "malunion": 402,
      "hy": 403,
      "olo": 404,
      "od": 405,
      "tive": 406,
      "corrosion": 407,
      "thor": 408,
      "ag": 409,
      "cal": 410,
      "ula": 411,
      "ving": 412,
      "third": 413,
      "wound": 414,
      "nec": 415,
      "vol": 416,
      "ly": 417,
      "teb": 418,
      "verteb": 419,
      "iiia": 420,
      "iiib": 421,
      "ult": 422,
      "verse": 423,
      "unc": 424,
      "iiic": 425,
      "arp": 426,
      "invol": 427,
      "ological": 428,
      "91": 429,
      "part": 430,
      "proc": 431,
      "S72": 432,
      "fir": 433,
      "nail": 434,
      "oste": 435,
      "ester": 436,
      "complic": 437,
      "stri": 438,
      "nontraffic": 439,
      "ial": 440,
      "son": 441,
      "las": 442,
      "lit": 443,
      "first": 444,
      "ss": 445,
      "fib": 446,
      "ves": 447,
      "trim": 448,
      "ficial": 449,
      "trimester": 450,
      "wa": 451,
      "osis": 452,
      "bite": 453,
      "metac": 454,
      "metacarp": 455,
      "41": 456,
      "person": 457,
      "super": 458,
      "cation": 459,
      "vertebra": 460,
      "36": 461,
      "involving": 462,
      "raft": 463,
      "forearm": 464,
      "lar": 465,
      "inter": 466,
      "assa": 467,
      "anti": 468,
      "itis": 469,
      "deter": 470,
      "accidental": 471,
      "assault": 472,
      "vic": 473,
      "lu": 474,
      "ronic": 475,
      "determin": 476,
      "harm": 477,
      "hip": 478,
      "rug": 479,
      "com": 480,
      "drug": 481,
      "oplas": 482,
      "mul": 483,
      "inal": 484,
      "ck": 485,
      "fibula": 486,
      "ped": 487,
      "self": 488,
      "selfharm": 489,
      "ia": 490,
      "undetermin": 491,
      "undetermined": 492,
      "use": 493,
      "ris": 494,
      "terior": 495,
      "kne": 496,
      "M8": 497,
      "ral": 498,
      "neoplas": 499,
      "med": 500,
      "09": 501,
      "knee": 502,
      "oid": 503,
      "superficial": 504,
      "age": 505,
      "ep": 506,
      "side": 507,
      "occ": 508,
      "XA": 509,
      "XD": 510,
      "XS": 511,
      "da": 512,
      "pass": 513,
      "arth": 514,
      "chronic": 515,
      "transp": 516,
      "ort": 517,
      "neck": 518,
      "ondy": 519,
      "xation": 520,
      "geal": 521,
      "T2": 522,
      "thumb": 523,
      "43": 524,
      "mid": 525,
      "cont": 526,
      "S62": 527,
      "hem": 528,
      "51": 529,
      "location": 530,
      "her": 531,
      "dislocation": 532,
      "59": 533,
      "har": 534,
      "phalanx": 535,
      "unintentional": 536,
      "ory": 537,
      "trans": 538,
      "terhar": 539,
      "salterhar": 540,
      "salterharris": 541,
      "pathological": 542,
      "thi": 543,
      "mage": 544,
      "damage": 545,
      "rea": 546,
      "tery": 547,
      "ane": 548,
      "not": 549,
      "punc": 550,
      "wall": 551,
      "ear": 552,
      "no": 553,
      "ger": 554,
      "xi": 555,
      "puncture": 556,
      "minut": 557,
      "lis": 558,
      "thigh": 559,
      "do": 560,
      "fe": 561,
      "ner": 562,
      "mb": 563,
      "artery": 564,
      "ate": 565,
      "wn": 566,
      "21": 567,
      "ction": 568,
      "ple": 569,
      "vical": 570,
      "cervical": 571,
      "ret": 572,
      "blo": 573,
      "49": 574,
      "opath": 575,
      "fol": 576,
      "class": 577,
      "transport": 578,
      "complication": 579,
      "ding": 580,
      "diab": 581,
      "39": 582,
      "av": 583,
      "metacarpal": 584,
      "multi": 585,
      "luxation": 586,
      "act": 587,
      "subluxation": 588,
      "ga": 589,
      "35": 590,
      "disorders": 591,
      "classified": 592,
      "sure": 593,
      "S8": 594,
      "neoplasm": 595,
      "ancy": 596,
      "S9": 597,
      "sew": 598,
      "here": 599,
      "toes": 600,
      "condy": 601,
      "elsew": 602,
      "exten": 603,
      "elsewhere": 604,
      "stru": 605,
      "00": 606,
      "oph": 607,
      "pregn": 608,
      "external": 609,
      "tes": 610,
      "pregnancy": 611,
      "stem": 612,
      "duc": 613,
      "drugs": 614,
      "occup": 615,
      "process": 616,
      "urr": 617,
      "ated": 618,
      "ap": 619,
      "thorac": 620,
      "ins": 621,
      "occupant": 622,
      "ax": 623,
      "multiple": 624,
      "gan": 625,
      "46": 626,
      "ital": 627,
      "venom": 628,
      "40": 629,
      "dle": 630,
      "middle": 631,
      "blood": 632,
      "transverse": 633,
      "rhe": 634,
      "system": 635,
      "81": 636,
      "less": 637,
      "head": 638,
      "infec": 639,
      "pen": 640,
      "gment": 641,
      "thoracic": 642,
      "mm": 643,
      "into": 644,
      "S42": 645,
      "bow": 646,
      "S92": 647,
      "follow": 648,
      "ence": 649,
      "following": 650,
      "enger": 651,
      "passenger": 652,
      "ritis": 653,
      "61": 654,
      "fetus": 655,
      "rh": 656,
      "elbow": 657,
      "tics": 658,
      "medial": 659,
      "form": 660,
      "limb": 661,
      "iral": 662,
      "sprain": 663,
      "litary": 664,
      "33": 665,
      "comminut": 666,
      "comminuted": 667,
      "50": 668,
      "pres": 669,
      "bac": 670,
      "toe": 671,
      "vity": 672,
      "10": 673,
      "44": 674,
      "comple": 675,
      "rheuma": 676,
      "lesser": 677,
      "oma": 678,
      "tusion": 679,
      "contusion": 680,
      "mo": 681,
      "30": 682,
      "ement": 683,
      "amp": 684,
      "whe": 685,
      "ran": 686,
      "ring": 687,
      "dri": 688,
      "lant": 689,
      "eb": 690,
      "care": 691,
      "cons": 692,
      "military": 693,
      "under": 694,
      "driver": 695,
      "organ": 696,
      "ness": 697,
      "ure": 698,
      "condyle": 699,
      "cious": 700,
      "cycle": 701,
      "pic": 702,
      "conscious": 703,
      "intra": 704,
      "cep": 705,
      "brea": 706,
      "mph": 707,
      "syn": 708,
      "devic": 709,
      "ute": 710,
      "vein": 711,
      "from": 712,
      "maternal": 713,
      "loss": 714,
      "orrh": 715,
      "vessel": 716,
      "way": 717,
      "hemorrh": 718,
      "mon": 719,
      "calc": 720,
      "acute": 721,
      "sites": 722,
      "site": 723,
      "peri": 724,
      "genital": 725,
      "utation": 726,
      "graft": 727,
      "amputation": 728,
      "arthritis": 729,
      "complete": 730,
      "ech": 731,
      "ella": 732,
      "rosis": 733,
      "ticular": 734,
      "cavity": 735,
      "45": 736,
      "operation": 737,
      "06": 738,
      "lymph": 739,
      "bilateral": 740,
      "imp": 741,
      "pat": 742,
      "pos": 743,
      "37": 744,
      "tre": 745,
      "tendons": 746,
      "malign": 747,
      "reg": 748,
      "malignant": 749,
      "cereb": 750,
      "tor": 751,
      "boar": 752,
      "sk": 753,
      "tro": 754,
      "muscles": 755,
      "rup": 756,
      "ject": 757,
      "hemorrhage": 758,
      "T8": 759,
      "object": 760,
      "ondylar": 761,
      "wheel": 762,
      "ative": 763,
      "drom": 764,
      "que": 765,
      "uck": 766,
      "obli": 767,
      "mel": 768,
      "patella": 769,
      "ho": 770,
      "toid": 771,
      "inde": 772,
      "articular": 773,
      "sur": 774,
      "rail": 775,
      "index": 776,
      "fall": 777,
      "intrac": 778,
      "contact": 779,
      "region": 780,
      "wheeled": 781,
      "adverse": 782,
      "able": 783,
      "oblique": 784,
      "railway": 785,
      "thorax": 786,
      "mer": 787,
      "XXA": 788,
      "XXD": 789,
      "XXS": 790,
      "curr": 791,
      "current": 792,
      "thre": 793,
      "segment": 794,
      "tle": 795,
      "ang": 796,
      "rheumatoid": 797,
      "opathy": 798,
      "segmental": 799,
      "etra": 800,
      "my": 801,
      "penetra": 802,
      "echan": 803,
      "dro": 804,
      "bus": 805,
      "syndrom": 806,
      "internal": 807,
      "56": 808,
      "operations": 809,
      "osing": 810,
      "induc": 811,
      "induced": 812,
      "sthe": 813,
      "echanical": 814,
      "heav": 815,
      "heavy": 816,
      "71": 817,
      "van": 818,
      "pick": 819,
      "three": 820,
      "spiral": 821,
      "prosthe": 822,
      "threewheeled": 823,
      "little": 824,
      "posterior": 825,
      "domin": 826,
      "pickup": 827,
      "mechanical": 828,
      "truck": 829,
      "water": 830,
      "consciousness": 831,
      "cord": 832,
      "ulcer": 833,
      "dosing": 834,
      "underdosing": 835,
      "penetration": 836,
      "tial": 837,
      "anterior": 838,
      "craft": 839,
      "bor": 840,
      "am": 841,
      "24": 842,
      "89": 843,
      "ati": 844,
      "rupture": 845,
      "back": 846,
      "nerve": 847,
      "estri": 848,
      "alangeal": 849,
      "pedestri": 850,
      "pedestrian": 851,
      "we": 852,
      "air": 853,
      "20": 854,
      "ell": 855,
      "25": 856,
      "syndrome": 857,
      "stal": 858,
      "strain": 859,
      "etes": 860,
      "diabetes": 861,
      "tub": 862,
      "proxi": 863,
      "proximal": 864,
      "litus": 865,
      "mellitus": 866,
      "63": 867,
      "chan": 868,
      "M84": 869,
      "implant": 870,
      "plac": 871,
      "ents": 872,
      "S63": 873,
      "9A": 874,
      "90": 875,
      "sca": 876,
      "abdomin": 877,
      "abdominal": 878,
      "fle": 879,
      "diseases": 880,
      "pedal": 881,
      "atar": 882,
      "metatar": 883,
      "phalangeal": 884,
      "interphalangeal": 885,
      "cular": 886,
      "etic": 887,
      "infection": 888,
      "proced": 889,
      "pressure": 890,
      "tal": 891,
      "venomous": 892,
      "rum": 893,
      "osi": 894,
      "epi": 895,
      "34": 896,
      "9D": 897,
      "9S": 898,
      "62": 899,
      "1A": 900,
      "mac": 901,
      "elid": 902,
      "eyelid": 903,
      "ain": 904,
      "grafts": 905,
      "clu": 906,
      "station": 907,
      "trochan": 908,
      "trochanter": 909,
      "vas": 910,
      "liga": 911,
      "great": 912,
      "ligament": 913,
      "cler": 914,
      "53": 915,
      "sor": 916,
      "flex": 917,
      "trac": 918,
      "93": 919,
      "S32": 920,
      "cin": 921,
      "psy": 922,
      "ren": 923,
      "distal": 924,
      "extre": 925,
      "calcane": 926,
      "spinal": 927,
      "ophalangeal": 928,
      "ance": 929,
      "excep": 930,
      "except": 931,
      "complications": 932,
      "partial": 933,
      "calcaneus": 934,
      "ni": 935,
      "extensor": 936,
      "flexor": 937,
      "69": 938,
      "iv": 939,
      "men": 940,
      "exp": 941,
      "malle": 942,
      "extension": 943,
      "fire": 944,
      "metatarsal": 945,
      "ani": 946,
      "psych": 947,
      "tissu": 948,
      "ist": 949,
      "malleol": 950,
      "coma": 951,
      "infla": 952,
      "secondary": 953,
      "inflamm": 954,
      "pel": 955,
      "ted": 956,
      "umbar": 957,
      "prim": 958,
      "19": 959,
      "ju": 960,
      "ali": 961,
      "breast": 962,
      "prosthetic": 963,
      "be": 964,
      "submer": 965,
      "wning": 966,
      "drowning": 967,
      "submersion": 968,
      "fac": 969,
      "29": 970,
      "gout": 971,
      "tissue": 972,
      "X2": 973,
      "60": 974,
      "sti": 975,
      "47": 976,
      "ating": 977,
      "explo": 978,
      "ble": 979,
      "sup": 980,
      "oneal": 981,
      "ropath": 982,
      "ities": 983,
      "erative": 984,
      "hyper": 985,
      "aneous": 986,
      "osteo": 987,
      "post": 988,
      "neur": 989,
      "cr": 990,
      "05": 991,
      "ema": 992,
      "outside": 993,
      "sac": 994,
      "ater": 995,
      "retin": 996,
      "test": 997,
      "omy": 998,
      "70": 999,
      "lon": 1000,
      "tri": 1001,
      "hour": 1002,
      "art": 1003,
      "animal": 1004,
      "nor": 1005,
      "cause": 1006,
      "metacarpophalangeal": 1007,
      "can": 1008,
      "throm": 1009,
      "diabetic": 1010,
      "using": 1011,
      "lism": 1012,
      "oral": 1013,
      "war": 1014,
      "perit": 1015,
      "device": 1016,
      "vascular": 1017,
      "bolism": 1018,
      "congenital": 1019,
      "ben": 1020,
      "subst": 1021,
      "X3": 1022,
      "stre": 1023,
      "lian": 1024,
      "chond": 1025,
      "ke": 1026,
      "ush": 1027,
      "causing": 1028,
      "normal": 1029,
      "lumbar": 1030,
      "ulum": 1031,
      "etal": 1032,
      "parts": 1033,
      "otic": 1034,
      "mity": 1035,
      "clerosis": 1036,
      "sc": 1037,
      "acet": 1038,
      "base": 1039,
      "acetab": 1040,
      "72": 1041,
      "greater": 1042,
      "tuber": 1043,
      "T23": 1044,
      "acetabulum": 1045,
      "ies": 1046,
      "iz": 1047,
      "13": 1048,
      "atory": 1049,
      "1D": 1050,
      "1S": 1051,
      "vicular": 1052,
      "long": 1053,
      "reac": 1054,
      "civi": 1055,
      "civilian": 1056,
      "cell": 1057,
      "lymphoma": 1058,
      "nonvenomous": 1059,
      "X4": 1060,
      "fetal": 1061,
      "crush": 1062,
      "23": 1063,
      "65": 1064,
      "anc": 1065,
      "bon": 1066,
      "ping": 1067,
      "face": 1068,
      "15": 1069,
      "board": 1070,
      "tibial": 1071,
      "osteop": 1072,
      "fingers": 1073,
      "cluding": 1074,
      "alm": 1075,
      "cus": 1076,
      "pi": 1077,
      "orosis": 1078,
      "spondy": 1079,
      "ants": 1080,
      "striction": 1081,
      "abnormal": 1082,
      "ather": 1083,
      "hours": 1084,
      "thrombo": 1085,
      "affect": 1086,
      "including": 1087,
      "ocular": 1088,
      "xed": 1089,
      "nel": 1090,
      "paration": 1091,
      "retinopathy": 1092,
      "dur": 1093,
      "sive": 1094,
      "cla": 1095,
      "vessels": 1096,
      "spondylo": 1097,
      "38": 1098,
      "edema": 1099,
      "posure": 1100,
      "exposure": 1101,
      "48": 1102,
      "gro": 1103,
      "titis": 1104,
      "train": 1105,
      "spi": 1106,
      "gl": 1107,
      "bypass": 1108,
      "S61": 1109,
      "suspec": 1110,
      "agents": 1111,
      "arthropath": 1112,
      "reaction": 1113,
      "retinal": 1114,
      "atheros": 1115,
      "intraarticular": 1116,
      "intest": 1117,
      "sia": 1118,
      "quad": 1119,
      "osteoporosis": 1120,
      "uri": 1121,
      "constriction": 1122,
      "atherosclerosis": 1123,
      "amin": 1124,
      "ulsion": 1125,
      "racondylar": 1126,
      "thermal": 1127,
      "vehicles": 1128,
      "devices": 1129,
      "supracondylar": 1130,
      "king": 1131,
      "wer": 1132,
      "16": 1133,
      "two": 1134,
      "urth": 1135,
      "peritoneal": 1136,
      "rasion": 1137,
      "fourth": 1138,
      "abrasion": 1139,
      "complicating": 1140,
      "personnel": 1141,
      "avulsion": 1142,
      "organs": 1143,
      "radial": 1144,
      "26": 1145,
      "sa": 1146,
      "ens": 1147,
      "S66": 1148,
      "procedure": 1149,
      "80": 1150,
      "cerebral": 1151,
      "urin": 1152,
      "man": 1153,
      "struction": 1154,
      "urinary": 1155,
      "83": 1156,
      "struc": 1157,
      "insect": 1158,
      "cu": 1159,
      "ile": 1160,
      "osity": 1161,
      "fro": 1162,
      "watercraft": 1163,
      "tuberosity": 1164,
      "T22": 1165,
      "blis": 1166,
      "nonthermal": 1167,
      "scap": 1168,
      "alight": 1169,
      "blister": 1170,
      "04": 1171,
      "tiv": 1172,
      "vis": 1173,
      "mato": 1174,
      "14": 1175,
      "skin": 1176,
      "S60": 1177,
      "ild": 1178,
      "eli": 1179,
      "lif": 1180,
      "power": 1181,
      "inflammatory": 1182,
      "liferative": 1183,
      "heart": 1184,
      "oly": 1185,
      "explosion": 1186,
      "boarding": 1187,
      "affecting": 1188,
      "displacement": 1189,
      "talus": 1190,
      "ily": 1191,
      "proliferative": 1192,
      "cyst": 1193,
      "08": 1194,
      "powered": 1195,
      "macular": 1196,
      "idi": 1197,
      "nontraumatic": 1198,
      "stable": 1199,
      "hist": 1200,
      "tum": 1201,
      "79": 1202,
      "sta": 1203,
      "break": 1204,
      "stationary": 1205,
      "labor": 1206,
      "implants": 1207,
      "ach": 1208,
      "03": 1209,
      "ts": 1210,
      "embolism": 1211,
      "stress": 1212,
      "toph": 1213,
      "nonmotor": 1214,
      "cardi": 1215,
      "trochanteric": 1216,
      "alighting": 1217,
      "separation": 1218,
      "elitis": 1219,
      "lau": 1220,
      "syno": 1221,
      "struck": 1222,
      "area": 1223,
      "ural": 1224,
      "fth": 1225,
      "glau": 1226,
      "fifth": 1227,
      "glaucoma": 1228,
      "99": 1229,
      "S06": 1230,
      "spon": 1231,
      "motorcycle": 1232,
      "spira": 1233,
      "osteochond": 1234,
      "18": 1235,
      "down": 1236,
      "ator": 1237,
      "iscus": 1238,
      "meniscus": 1239,
      "pelvis": 1240,
      "omyelitis": 1241,
      "une": 1242,
      "ylo": 1243,
      "crushing": 1244,
      "breakdown": 1245,
      "ili": 1246,
      "tory": 1247,
      "olec": 1248,
      "opathic": 1249,
      "place": 1250,
      "born": 1251,
      "T63": 1252,
      "stage": 1253,
      "lary": 1254,
      "3A": 1255,
      "pu": 1256,
      "rol": 1257,
      "extremity": 1258,
      "S31": 1259,
      "bet": 1260,
      "fixed": 1261,
      "venile": 1262,
      "juvenile": 1263,
      "eral": 1264,
      "bic": 1265,
      "lun": 1266,
      "necrosis": 1267,
      "benign": 1268,
      "fron": 1269,
      "stbite": 1270,
      "frostbite": 1271,
      "history": 1272,
      "lep": 1273,
      "coc": 1274,
      "af": 1275,
      "occurr": 1276,
      "quir": 1277,
      "neoplastic": 1278,
      "5A": 1279,
      "usion": 1280,
      "5D": 1281,
      "5S": 1282,
      "eth": 1283,
      "rant": 1284,
      "physis": 1285,
      "minutes": 1286,
      "quadrant": 1287,
      "suspected": 1288,
      "hor": 1289,
      "27": 1290,
      "enosis": 1291,
      "S56": 1292,
      "asp": 1293,
      "corne": 1294,
      "2A": 1295,
      "2D": 1296,
      "4A": 1297,
      "ale": 1298,
      "arac": 1299,
      "cent": 1300,
      "junc": 1301,
      "erel": 1302,
      "acquir": 1303,
      "agerel": 1304,
      "acquired": 1305,
      "agerelated": 1306,
      "lesion": 1307,
      "stenosis": 1308,
      "2S": 1309,
      "front": 1310,
      "ogen": 1311,
      "renal": 1312,
      "surgical": 1313,
      "17": 1314,
      "S12": 1315,
      "esthe": 1316,
      "imm": 1317,
      "dep": 1318,
      "abuse": 1319,
      "bla": 1320,
      "tur": 1321,
      "86": 1322,
      "emia": 1323,
      "S99": 1324,
      "ranial": 1325,
      "phoid": 1326,
      "occurrence": 1327,
      "stro": 1328,
      "bit": 1329,
      "ally": 1330,
      "trins": 1331,
      "trinsic": 1332,
      "respira": 1333,
      "atives": 1334,
      "anesthe": 1335,
      "conjunc": 1336,
      "epiphysis": 1337,
      "conjunctiv": 1338,
      "4D": 1339,
      "4S": 1340,
      "nerv": 1341,
      "maj": 1342,
      "gra": 1343,
      "hol": 1344,
      "arction": 1345,
      "infarction": 1346,
      "55": 1347,
      "ser": 1348,
      "major": 1349,
      "idiopathic": 1350,
      "intrinsic": 1351,
      "respiratory": 1352,
      "O36": 1353,
      "smal": 1354,
      "legal": 1355,
      "thrombosis": 1356,
      "uter": 1357,
      "S02": 1358,
      "over": 1359,
      "onec": 1360,
      "noncollision": 1361,
      "coron": 1362,
      "vention": 1363,
      "osteonec": 1364,
      "intervention": 1365,
      "torus": 1366,
      "osteonecrosis": 1367,
      "ha": 1368,
      "ip": 1369,
      "emb": 1370,
      "3D": 1371,
      "3S": 1372,
      "por": 1373,
      "ranon": 1374,
      "olecranon": 1375,
      "char": 1376,
      "det": 1377,
      "osteomyelitis": 1378,
      "striking": 1379,
      "stylo": 1380,
      "femoral": 1381,
      "styloid": 1382,
      "dition": 1383,
      "condition": 1384,
      "nervous": 1385,
      "nonpressure": 1386,
      "burst": 1387,
      "intracondylar": 1388,
      "malleolar": 1389,
      "malleolus": 1390,
      "scapula": 1391,
      "54": 1392,
      "011": 1393,
      "biological": 1394,
      "carcin": 1395,
      "6A": 1396,
      "thesis": 1397,
      "listhesis": 1398,
      "spondylolisthesis": 1399,
      "after": 1400,
      "asphy": 1401,
      "6D": 1402,
      "6S": 1403,
      "navicular": 1404,
      "deli": 1405,
      "xiation": 1406,
      "S89": 1407,
      "scaphoid": 1408,
      "asphyxiation": 1409,
      "94": 1410,
      "97": 1411,
      "spine": 1412,
      "tract": 1413,
      "structure": 1414,
      "kid": 1415,
      "new": 1416,
      "ney": 1417,
      "apon": 1418,
      "extrem": 1419,
      "kidney": 1420,
      "weapon": 1421,
      "newborn": 1422,
      "memb": 1423,
      "au": 1424,
      "nar": 1425,
      "ism": 1426,
      "ween": 1427,
      "between": 1428,
      "012": 1429,
      "arily": 1430,
      "primarily": 1431,
      "ances": 1432,
      "ium": 1433,
      "enter": 1434,
      "substance": 1435,
      "injuri": 1436,
      "injuries": 1437,
      "psycho": 1438,
      "surface": 1439,
      "elect": 1440,
      "local": 1441,
      "S91": 1442,
      "S59": 1443,
      "lity": 1444,
      "injuring": 1445,
      "T24": 1446,
      "aircraft": 1447,
      "primary": 1448,
      "depend": 1449,
      "T84": 1450,
      "scal": 1451,
      "uni": 1452,
      "pound": 1453,
      "compound": 1454,
      "group": 1455,
      "roll": 1456,
      "hemato": 1457,
      "procedural": 1458,
      "S22": 1459,
      "its": 1460,
      "cut": 1461,
      "cathe": 1462,
      "chor": 1463,
      "flu": 1464,
      "child": 1465,
      "terial": 1466,
      "hyp": 1467,
      "S83": 1468,
      "fa": 1469,
      "so": 1470,
      "rel": 1471,
      "res": 1472,
      "extremities": 1473,
      "dependence": 1474,
      "87": 1475,
      "95": 1476,
      "axil": 1477,
      "66": 1478,
      "phen": 1479,
      "exist": 1480,
      "existing": 1481,
      "postprocedural": 1482,
      "deliver": 1483,
      "nod": 1484,
      "taneous": 1485,
      "ations": 1486,
      "spontaneous": 1487,
      "cutaneous": 1488,
      "57": 1489,
      "preexisting": 1490,
      "67": 1491,
      "iform": 1492,
      "degen": 1493,
      "myosi": 1494,
      "myositis": 1495,
      "chem": 1496,
      "vicle": 1497,
      "ization": 1498,
      "clavicle": 1499,
      "intracranial": 1500,
      "during": 1501,
      "immun": 1502,
      "dom": 1503,
      "vement": 1504,
      "fixation": 1505,
      "8X": 1506,
      "S36": 1507,
      "cune": 1508,
      "absc": 1509,
      "S93": 1510,
      "cuneiform": 1511,
      "dra": 1512,
      "palm": 1513,
      "lap": 1514,
      "abscess": 1515,
      "periocular": 1516,
      "S43": 1517,
      "func": 1518,
      "delivery": 1519,
      "pain": 1520,
      "che": 1521,
      "tear": 1522,
      "personal": 1523,
      "small": 1524,
      "ak": 1525,
      "cardiac": 1526,
      "sco": 1527,
      "more": 1528,
      "central": 1529,
      "gestation": 1530,
      "infective": 1531,
      "arthropathy": 1532,
      "compounds": 1533,
      "stu": 1534,
      "agon": 1535,
      "T43": 1536,
      "T50": 1537,
      "hydro": 1538,
      "condylar": 1539,
      "agonist": 1540,
      "sed": 1541,
      "systemic": 1542,
      "rec": 1543,
      "charge": 1544,
      "but": 1545,
      "lip": 1546,
      "female": 1547,
      "minor": 1548,
      "placent": 1549,
      "aly": 1550,
      "malform": 1551,
      "accidentally": 1552,
      "agonists": 1553,
      "pul": 1554,
      "ans": 1555,
      "cerebrum": 1556,
      "ting": 1557,
      "term": 1558,
      "ity": 1559,
      "ker": 1560,
      "substances": 1561,
      "male": 1562,
      "gic": 1563,
      "oci": 1564,
      "var": 1565,
      "S90": 1566,
      "101": 1567,
      "85": 1568,
      "ek": 1569,
      "jum": 1570,
      "mis": 1571,
      "defici": 1572,
      "prosthesis": 1573,
      "gland": 1574,
      "mandi": 1575,
      "achment": 1576,
      "corneal": 1577,
      "detachment": 1578,
      "gu": 1579,
      "fish": 1580,
      "deriv": 1581,
      "carbon": 1582,
      "stric": 1583,
      "derivatives": 1584,
      "associ": 1585,
      "amni": 1586,
      "ression": 1587,
      "amniotic": 1588,
      "perium": 1589,
      "T82": 1590,
      "reas": 1591,
      "discharge": 1592,
      "associated": 1593,
      "nx": 1594,
      "alco": 1595,
      "dys": 1596,
      "11A": 1597,
      "ato": 1598,
      "ification": 1599,
      "11D": 1600,
      "vertebral": 1601,
      "sul": 1602,
      "legia": 1603,
      "hal": 1604,
      "compression": 1605,
      "oss": 1606,
      "mandible": 1607,
      "Y36": 1608,
      "mono": 1609,
      "pheral": 1610,
      "bir": 1611,
      "peripheral": 1612,
      "function": 1613,
      "otitis": 1614,
      "red": 1615,
      "va": 1616,
      "11S": 1617,
      "falling": 1618,
      "S21": 1619,
      "S00": 1620,
      "T25": 1621,
      "T85": 1622,
      "intestine": 1623,
      "lung": 1624,
      "alcohol": 1625,
      "related": 1626,
      "jumping": 1627,
      "catheter": 1628,
      "ioid": 1629,
      "poly": 1630,
      "viral": 1631,
      "contin": 1632,
      "me": 1633,
      "any": 1634,
      "hot": 1635,
      "bis": 1636,
      "S65": 1637,
      "ophth": 1638,
      "opioid": 1639,
      "pil": 1640,
      "les": 1641,
      "rider": 1642,
      "boat": 1643,
      "07": 1644,
      "96": 1645,
      "food": 1646,
      "M80": 1647,
      "carcinoma": 1648,
      "84": 1649,
      "brain": 1650,
      "cat": 1651,
      "ency": 1652,
      "tid": 1653,
      "stimul": 1654,
      "ior": 1655,
      "bones": 1656,
      "turn": 1657,
      "nodes": 1658,
      "than": 1659,
      "intestinal": 1660,
      "8A": 1661,
      "mar": 1662,
      "birth": 1663,
      "ophthalm": 1664,
      "S01": 1665,
      "humeral": 1666,
      "S85": 1667,
      "sever": 1668,
      "12A": 1669,
      "12D": 1670,
      "12S": 1671,
      "press": 1672,
      "Y37": 1673,
      "mic": 1674,
      "mes": 1675,
      "depress": 1676,
      "02A": 1677,
      "02D": 1678,
      "02S": 1679,
      "implanted": 1680,
      "sitis": 1681,
      "91A": 1682,
      "91D": 1683,
      "91S": 1684,
      "T20": 1685,
      "pical": 1686,
      "pati": 1687,
      "val": 1688,
      "001": 1689,
      "yro": 1690,
      "arteri": 1691,
      "abs": 1692,
      "osti": 1693,
      "S53": 1694,
      "vitis": 1695,
      "ina": 1696,
      "olytic": 1697,
      "74": 1698,
      "cul": 1699,
      "tolo": 1700,
      "acid": 1701,
      "lavicular": 1702,
      "oclavicular": 1703,
      "synovitis": 1704,
      "031": 1705,
      "ms": 1706,
      "app": 1707,
      "unilateral": 1708,
      "131": 1709,
      "75": 1710,
      "disc": 1711,
      "8D": 1712,
      "8S": 1713,
      "T45": 1714,
      "ror": 1715,
      "leptics": 1716,
      "depressants": 1717,
      "terror": 1718,
      "absence": 1719,
      "otid": 1720,
      "S37": 1721,
      "bu": 1722,
      "rop": 1723,
      "H40": 1724,
      "meta": 1725,
      "coccal": 1726,
      "itu": 1727,
      "ific": 1728,
      "carotid": 1729,
      "I70": 1730,
      "ucle": 1731,
      "ship": 1732,
      "antagonists": 1733,
      "gang": 1734,
      "T83": 1735,
      "lead": 1736,
      "obstruction": 1737,
      "status": 1738,
      "dinal": 1739,
      "panc": 1740,
      "isch": 1741,
      "being": 1742,
      "longitu": 1743,
      "longitudinal": 1744,
      "bular": 1745,
      "io": 1746,
      "vac": 1747,
      "cap": 1748,
      "032": 1749,
      "64": 1750,
      "M1A": 1751,
      "92A": 1752,
      "92D": 1753,
      "92S": 1754,
      "tophi": 1755,
      "tophus": 1756,
      "membran": 1757,
      "chemical": 1758,
      "hall": 1759,
      "lor": 1760,
      "sing": 1761,
      "vision": 1762,
      "neuro": 1763,
      "I69": 1764,
      "S20": 1765,
      "sof": 1766,
      "nonproliferative": 1767,
      "notic": 1768,
      "arthropathies": 1769,
      "ges": 1770,
      "incomplete": 1771,
      "veins": 1772,
      "degeneration": 1773,
      "asi": 1774,
      "def": 1775,
      "fail": 1776,
      "ery": 1777,
      "unstable": 1778,
      "posi": 1779,
      "vertebrae": 1780,
      "nerves": 1781,
      "continu": 1782,
      "hallu": 1783,
      "extra": 1784,
      "cyc": 1785,
      "rimal": 1786,
      "lacrimal": 1787,
      "76": 1788,
      "S49": 1789,
      "T38": 1790,
      "leu": 1791,
      "ulno": 1792,
      "litis": 1793,
      "ulnohumeral": 1794,
      "0A": 1795,
      "0D": 1796,
      "0S": 1797,
      "kin": 1798,
      "tock": 1799,
      "buttock": 1800,
      "az": 1801,
      "gas": 1802,
      "gly": 1803,
      "vag": 1804,
      "ophy": 1805,
      "involvement": 1806,
      "inflammation": 1807,
      "aract": 1808,
      "cataract": 1809,
      "H02": 1810,
      "drum": 1811,
      "hn": 1812,
      "diff": 1813,
      "atro": 1814,
      "colon": 1815,
      "membranes": 1816,
      "special": 1817,
      "allo": 1818,
      "burns": 1819,
      "ronch": 1820,
      "bronch": 1821,
      "recurrent": 1822,
      "venous": 1823,
      "firearm": 1824,
      "puer": 1825,
      "coronoid": 1826,
      "ophyseal": 1827,
      "58": 1828,
      "fusion": 1829,
      "derate": 1830,
      "moderate": 1831,
      "pulmon": 1832,
      "132": 1833,
      "bro": 1834,
      "complicated": 1835,
      "beha": 1836,
      "ized": 1837,
      "leuk": 1838,
      "diffuse": 1839,
      "behavi": 1840,
      "pal": 1841,
      "ors": 1842,
      "neu": 1843,
      "hyperten": 1844,
      "recep": 1845,
      "09A": 1846,
      "09D": 1847,
      "09S": 1848,
      "73": 1849,
      "go": 1850,
      "occi": 1851,
      "epic": 1852,
      "receptor": 1853,
      "M25": 1854,
      "S35": 1855,
      "vir": 1856,
      "esoph": 1857,
      "collateral": 1858,
      "M89": 1859,
      "midcervical": 1860,
      "pelvic": 1861,
      "synovi": 1862,
      "soft": 1863,
      "epicondy": 1864,
      "lat": 1865,
      "iso": 1866,
      "neum": 1867,
      "puerperium": 1868,
      "active": 1869,
      "orbit": 1870,
      "culo": 1871,
      "sacrum": 1872,
      "placenta": 1873,
      "hallucin": 1874,
      "98": 1875,
      "fact": 1876,
      "canal": 1877,
      "stimulant": 1878,
      "defect": 1879,
      "pa": 1880,
      "return": 1881,
      "magn": 1882,
      "M87": 1883,
      "S46": 1884,
      "T81": 1885,
      "S76": 1886,
      "T21": 1887,
      "acting": 1888,
      "S86": 1889,
      "blast": 1890,
      "weapons": 1891,
      "vari": 1892,
      "occlu": 1893,
      "gastric": 1894,
      "gun": 1895,
      "perfor": 1896,
      "preterm": 1897,
      "follic": 1898,
      "pulmonary": 1899,
      "ureth": 1900,
      "uterine": 1901,
      "sular": 1902,
      "lying": 1903,
      "uclear": 1904,
      "occlusion": 1905,
      "28": 1906,
      "pneum": 1907,
      "ergic": 1908,
      "acrom": 1909,
      "unk": 1910,
      "block": 1911,
      "follicular": 1912,
      "destruction": 1913,
      "epicondyle": 1914,
      "041": 1915,
      "Y92": 1916,
      "hin": 1917,
      "tem": 1918,
      "M05": 1919,
      "des": 1920,
      "ox": 1921,
      "pri": 1922,
      "thyro": 1923,
      "focal": 1924,
      "sacral": 1925,
      "deform": 1926,
      "lasia": 1927,
      "trunk": 1928,
      "bul": 1929,
      "gi": 1930,
      "anxi": 1931,
      "ulnar": 1932,
      "deep": 1933,
      "trache": 1934,
      "ulo": 1935,
      "adren": 1936,
      "infecti": 1937,
      "T40": 1938,
      "thro": 1939,
      "forc": 1940,
      "defor": 1941,
      "phal": 1942,
      "141": 1943,
      "ocy": 1944,
      "atment": 1945,
      "parasi": 1946,
      "treatment": 1947,
      "cerebro": 1948,
      "deformity": 1949,
      "nuclear": 1950,
      "intoxic": 1951,
      "media": 1952,
      "transfusion": 1953,
      "situ": 1954,
      "bile": 1955,
      "portion": 1956,
      "kerato": 1957,
      "single": 1958,
      "atal": 1959,
      "X2A": 1960,
      "X2D": 1961,
      "X2S": 1962,
      "conjunctivitis": 1963,
      "pilon": 1964,
      "intoxication": 1965,
      "table": 1966,
      "psychotic": 1967,
      "M24": 1968,
      "T46": 1969,
      "T44": 1970,
      "Y35": 1971,
      "mit": 1972,
      "official": 1973,
      "ard": 1974,
      "mast": 1975,
      "S79": 1976,
      "marine": 1977,
      "tural": 1978,
      "old": 1979,
      "pancreas": 1980,
      "bronchus": 1981,
      "behavior": 1982,
      "inhal": 1983,
      "vaccin": 1984,
      "S25": 1985,
      "ball": 1986,
      "glo": 1987,
      "symp": 1988,
      "rest": 1989,
      "pathy": 1990,
      "042": 1991,
      "142": 1992,
      "78": 1993,
      "amb": 1994,
      "ceration": 1995,
      "fla": 1996,
      "dysp": 1997,
      "terrorism": 1998,
      "88": 1999,
      "bent": 2000,
      "gous": 2001,
      "sna": 2002,
      "subtrochanteric": 2003,
      "bimalleolar": 2004,
      "maison": 2005,
      "S68": 2006,
      "intertrochanteric": 2007,
      "apophyseal": 2008,
      "amate": 2009,
      "tube": 2010,
      "trimalleolar": 2011,
      "osteochondral": 2012,
      "bicondylar": 2013,
      "autolo": 2014,
      "mission": 2015,
      "neuves": 2016,
      "snake": 2017,
      "maisonneuves": 2018,
      "autologous": 2019,
      "dder": 2020,
      "axilla": 2021,
      "atrophy": 2022,
      "77": 2023,
      "tar": 2024,
      "specific": 2025,
      "bursitis": 2026,
      "hibi": 2027,
      "X3A": 2028,
      "X3D": 2029,
      "X3S": 2030,
      "scale": 2031,
      "immunization": 2032,
      "palmar": 2033,
      "S30": 2034,
      "V86": 2035,
      "inhibi": 2036,
      "large": 2037,
      "duration": 2038,
      "bitten": 2039,
      "metabolism": 2040,
      "cerebrovascular": 2041,
      "201": 2042,
      "py": 2043,
      "ta": 2044,
      "ardi": 2045,
      "present": 2046,
      "intractable": 2047,
      "ening": 2048,
      "nose": 2049,
      "bladder": 2050,
      "hallucinogen": 2051,
      "inhibitor": 2052,
      "1X": 2053,
      "yance": 2054,
      "edge": 2055,
      "veyance": 2056,
      "conveyance": 2057,
      "intent": 2058,
      "druginduced": 2059,
      "anesthetics": 2060,
      "sus": 2061,
      "ilding": 2062,
      "anesthesia": 2063,
      "electronic": 2064,
      "building": 2065,
      "ito": 2066,
      "pes": 2067,
      "leak": 2068,
      "arti": 2069,
      "ulceration": 2070,
      "paraly": 2071,
      "hypertro": 2072,
      "psychoactive": 2073,
      "S14": 2074,
      "sin": 2075,
      "tain": 2076,
      "oplegia": 2077,
      "fluid": 2078,
      "virus": 2079,
      "esophag": 2080,
      "trachea": 2081,
      "301": 2082,
      "fin": 2083,
      "gkin": 2084,
      "hod": 2085,
      "enz": 2086,
      "coca": 2087,
      "X4A": 2088,
      "X4D": 2089,
      "X4S": 2090,
      "chorio": 2091,
      "malformations": 2092,
      "hodgkin": 2093,
      "cocaine": 2094,
      "plant": 2095,
      "wth": 2096,
      "certain": 2097,
      "high": 2098,
      "growth": 2099,
      "leptic": 2100,
      "T36": 2101,
      "T49": 2102,
      "T47": 2103,
      "T48": 2104,
      "wedge": 2105,
      "fractures": 2106,
      "adult": 2107,
      "antidepressants": 2108,
      "gastro": 2109,
      "S96": 2110,
      "saphen": 2111,
      "extraarticular": 2112,
      "vaccines": 2113,
      "saphenous": 2114,
      "fur": 2115,
      "anal": 2116,
      "proble": 2117,
      "M86": 2118,
      "epileptic": 2119,
      "failure": 2120,
      "ces": 2121,
      "coag": 2122,
      "genito": 2123,
      "leukemia": 2124,
      "finding": 2125,
      "coagul": 2126,
      "genitourinary": 2127,
      "2X": 2128,
      "sep": 2129,
      "cose": 2130,
      "retain": 2131,
      "osteoarthritis": 2132,
      "severe": 2133,
      "retained": 2134,
      "angular": 2135,
      "childbirth": 2136,
      "68": 2137,
      "H35": 2138,
      "ele": 2139,
      "fra": 2140,
      "mult": 2141,
      "stern": 2142,
      "olysis": 2143,
      "leakage": 2144,
      "nonpowered": 2145,
      "underlying": 2146,
      "ostimul": 2147,
      "0X": 2148,
      "sen": 2149,
      "roller": 2150,
      "whi": 2151,
      "derang": 2152,
      "arachn": 2153,
      "derangement": 2154,
      "lum": 2155,
      "ry": 2156,
      "subarachn": 2157,
      "cir": 2158,
      "nown": 2159,
      "myel": 2160,
      "occip": 2161,
      "presentation": 2162,
      "paralytic": 2163,
      "subarachnoid": 2164,
      "thetic": 2165,
      "comb": 2166,
      "angle": 2167,
      "231": 2168,
      "M12": 2169,
      "ene": 2170,
      "fistu": 2171,
      "M85": 2172,
      "gments": 2173,
      "sympto": 2174,
      "fragments": 2175,
      "fistula": 2176,
      "L97": 2177,
      "O41": 2178,
      "T65": 2179,
      "V93": 2180,
      "hamate": 2181,
      "nex": 2182,
      "unci": 2183,
      "optic": 2184,
      "peroneal": 2185,
      "trape": 2186,
      "adnex": 2187,
      "prema": 2188,
      "intercondylar": 2189,
      "xide": 2190,
      "chondro": 2191,
      "pigment": 2192,
      "enteric": 2193,
      "hypnotic": 2194,
      "lapse": 2195,
      "sedative": 2196,
      "continuing": 2197,
      "synovium": 2198,
      "anxiolytic": 2199,
      "multangular": 2200,
      "unciform": 2201,
      "trapez": 2202,
      "adnexa": 2203,
      "known": 2204,
      "zo": 2205,
      "syph": 2206,
      "perforation": 2207,
      "esophagus": 2208,
      "3X": 2209,
      "331": 2210,
      "mild": 2211,
      "vul": 2212,
      "tions": 2213,
      "adreno": 2214,
      "late": 2215,
      "again": 2216,
      "scalp": 2217,
      "against": 2218,
      "4X": 2219,
      "hemi": 2220,
      "effects": 2221,
      "lin": 2222,
      "antibi": 2223,
      "transplant": 2224,
      "S45": 2225,
      "S27": 2226,
      "T42": 2227,
      "T39": 2228,
      "mil": 2229,
      "S75": 2230,
      "gener": 2231,
      "burning": 2232,
      "eps": 2233,
      "coronary": 2234,
      "gy": 2235,
      "sist": 2236,
      "subcla": 2237,
      "vian": 2238,
      "hydra": 2239,
      "lastic": 2240,
      "jug": 2241,
      "infectious": 2242,
      "subclavian": 2243,
      "0XXA": 2244,
      "0XXD": 2245,
      "0XXS": 2246,
      "232": 2247,
      "ov": 2248,
      "bacterial": 2249,
      "hormon": 2250,
      "varicose": 2251,
      "artificial": 2252,
      "jugular": 2253,
      "den": 2254,
      "tent": 2255,
      "crushed": 2256,
      "patient": 2257,
      "gestive": 2258,
      "H44": 2259,
      "previ": 2260,
      "medi": 2261,
      "axillary": 2262,
      "cheek": 2263,
      "redu": 2264,
      "applic": 2265,
      "ana": 2266,
      "hypo": 2267,
      "corrosions": 2268,
      "supervision": 2269,
      "localized": 2270,
      "dome": 2271,
      "ropion": 2272,
      "halangeal": 2273,
      "list": 2274,
      "liver": 2275,
      "chlor": 2276,
      "transphalangeal": 2277,
      "penis": 2278,
      "intrauterine": 2279,
      "impair": 2280,
      "cyclist": 2281,
      "pop": 2282,
      "ulitis": 2283,
      "lite": 2284,
      "hematoma": 2285,
      "arteries": 2286,
      "applicable": 2287,
      "poplite": 2288,
      "popliteal": 2289,
      "M61": 2290,
      "dia": 2291,
      "genous": 2292,
      "whether": 2293,
      "1XXA": 2294,
      "1XXD": 2295,
      "1XXS": 2296,
      "V00": 2297,
      "ovascular": 2298,
      "121": 2299,
      "cervi": 2300,
      "controll": 2301,
      "controlled": 2302,
      "gird": 2303,
      "ective": 2304,
      "aro": 2305,
      "vagina": 2306,
      "hormones": 2307,
      "girdle": 2308,
      "nia": 2309,
      "uncertain": 2310,
      "leb": 2311,
      "aty": 2312,
      "111": 2313,
      "obstruc": 2314,
      "factor": 2315,
      "while": 2316,
      "L89": 2317,
      "S15": 2318,
      "T17": 2319,
      "mia": 2320,
      "monoplegia": 2321,
      "abnormalities": 2322,
      "tempor": 2323,
      "rollersk": 2324,
      "5X": 2325,
      "swi": 2326,
      "arynx": 2327,
      "inhibitors": 2328,
      "swimm": 2329,
      "241": 2330,
      "zone": 2331,
      "anus": 2332,
      "rot": 2333,
      "death": 2334,
      "duct": 2335,
      "calcification": 2336,
      "thyroid": 2337,
      "ovary": 2338,
      "impairment": 2339,
      "039": 2340,
      "9XXA": 2341,
      "9XXD": 2342,
      "9XXS": 2343,
      "umn": 2344,
      "lax": 2345,
      "cho": 2346,
      "column": 2347,
      "021": 2348,
      "029": 2349,
      "mixed": 2350,
      "ceps": 2351,
      "larynx": 2352,
      "cro": 2353,
      "hom": 2354,
      "pur": 2355,
      "let": 2356,
      "arch": 2357,
      "diving": 2358,
      "infer": 2359,
      "gens": 2360,
      "osteitis": 2361,
      "intermit": 2362,
      "rheumatic": 2363,
      "electro": 2364,
      "deficiency": 2365,
      "ossification": 2366,
      "gangren": 2367,
      "intermittent": 2368,
      "gli": 2369,
      "ling": 2370,
      "ined": 2371,
      "gangrene": 2372,
      "242": 2373,
      "S40": 2374,
      "S50": 2375,
      "T37": 2376,
      "V90": 2377,
      "aadreno": 2378,
      "sternal": 2379,
      "inno": 2380,
      "onia": 2381,
      "teeth": 2382,
      "minate": 2383,
      "S70": 2384,
      "superior": 2385,
      "larger": 2386,
      "S80": 2387,
      "ductor": 2388,
      "synthetic": 2389,
      "week": 2390,
      "scapular": 2391,
      "ilium": 2392,
      "biceps": 2393,
      "leadinduced": 2394,
      "ischium": 2395,
      "neuroleptics": 2396,
      "findings": 2397,
      "aadrenoreceptor": 2398,
      "innominate": 2399,
      "weeks": 2400,
      "mu": 2401,
      "dibular": 2402,
      "ates": 2403,
      "022": 2404,
      "contrac": 2405,
      "atypical": 2406,
      "rine": 2407,
      "andibular": 2408,
      "ull": 2409,
      "112": 2410,
      "omandibular": 2411,
      "conjunctival": 2412,
      "reduction": 2413,
      "temporomandibular": 2414,
      "V91": 2415,
      "lens": 2416,
      "pool": 2417,
      "122": 2418,
      "swimming": 2419,
      "332": 2420,
      "7A": 2421,
      "M67": 2422,
      "O31": 2423,
      "zation": 2424,
      "deposi": 2425,
      "gery": 2426,
      "surgery": 2427,
      "suspect": 2428,
      "lebitis": 2429,
      "251": 2430,
      "ilis": 2431,
      "pto": 2432,
      "forms": 2433,
      "skate": 2434,
      "352": 2435,
      "401": 2436,
      "M71": 2437,
      "W16": 2438,
      "sm": 2439,
      "tamin": 2440,
      "abdom": 2441,
      "intervertebral": 2442,
      "oidal": 2443,
      "organic": 2444,
      "objects": 2445,
      "abdomen": 2446,
      "151": 2447,
      "431": 2448,
      "meth": 2449,
      "ococcal": 2450,
      "coid": 2451,
      "parasitic": 2452,
      "vulva": 2453,
      "139": 2454,
      "fam": 2455,
      "reening": 2456,
      "tivity": 2457,
      "ander": 2458,
      "traction": 2459,
      "screening": 2460,
      "score": 2461,
      "malformation": 2462,
      "family": 2463,
      "S55": 2464,
      "vid": 2465,
      "spas": 2466,
      "visu": 2467,
      "S95": 2468,
      "H18": 2469,
      "mass": 2470,
      "sple": 2471,
      "derma": 2472,
      "ock": 2473,
      "spleen": 2474,
      "351": 2475,
      "dent": 2476,
      "fallo": 2477,
      "law": 2478,
      "examin": 2479,
      "hit": 2480,
      "pian": 2481,
      "uterus": 2482,
      "341": 2483,
      "T59": 2484,
      "T56": 2485,
      "numb": 2486,
      "rin": 2487,
      "enforc": 2488,
      "stander": 2489,
      "tick": 2490,
      "bility": 2491,
      "ides": 2492,
      "bystander": 2493,
      "gestational": 2494,
      "sternoclavicular": 2495,
      "fallopian": 2496,
      "number": 2497,
      "enforcement": 2498,
      "rhy": 2499,
      "phylo": 2500,
      "opathies": 2501,
      "staphylo": 2502,
      "osteochondrosis": 2503,
      "rhyth": 2504,
      "2XXA": 2505,
      "2XXD": 2506,
      "2XXS": 2507,
      "dor": 2508,
      "respon": 2509,
      "pharynx": 2510,
      "dysplasia": 2511,
      "syphilis": 2512,
      "obstructed": 2513,
      "4G": 2514,
      "4K": 2515,
      "I82": 2516,
      "S11": 2517,
      "gon": 2518,
      "sno": 2519,
      "gres": 2520,
      "019": 2521,
      "medic": 2522,
      "infections": 2523,
      "stitis": 2524,
      "gue": 2525,
      "hypertension": 2526,
      "ay": 2527,
      "omal": 2528,
      "cial": 2529,
      "otro": 2530,
      "neph": 2531,
      "inferior": 2532,
      "432": 2533,
      "6X": 2534,
      "stment": 2535,
      "adju": 2536,
      "cornea": 2537,
      "visual": 2538,
      "adjustment": 2539,
      "H16": 2540,
      "M62": 2541,
      "T41": 2542,
      "cess": 2543,
      "ioclavicular": 2544,
      "sophalangeal": 2545,
      "wing": 2546,
      "digestive": 2547,
      "sharp": 2548,
      "chant": 2549,
      "ilboat": 2550,
      "S73": 2551,
      "infusion": 2552,
      "skull": 2553,
      "merchant": 2554,
      "metatarsophalangeal": 2555,
      "sailboat": 2556,
      "pubis": 2557,
      "fishing": 2558,
      "acromioclavicular": 2559,
      "glider": 2560,
      "051": 2561,
      "orth": 2562,
      "tibility": 2563,
      "intersti": 2564,
      "scro": 2565,
      "urethral": 2566,
      "hypertrophy": 2567,
      "gastrointestinal": 2568,
      "interstitial": 2569,
      "M21": 2570,
      "otics": 2571,
      "remission": 2572,
      "anemia": 2573,
      "encephal": 2574,
      "inhalant": 2575,
      "antibiotics": 2576,
      "uncle": 2577,
      "tila": 2578,
      "nabis": 2579,
      "radiation": 2580,
      "cartila": 2581,
      "cannabis": 2582,
      "immuno": 2583,
      "occipital": 2584,
      "snow": 2585,
      "oli": 2586,
      "pred": 2587,
      "scler": 2588,
      "xth": 2589,
      "rep": 2590,
      "sex": 2591,
      "sixth": 2592,
      "light": 2593,
      "uton": 2594,
      "adhe": 2595,
      "itary": 2596,
      "systems": 2597,
      "melan": 2598,
      "machin": 2599,
      "grade": 2600,
      "3XXA": 2601,
      "3XXD": 2602,
      "3XXS": 2603,
      "M02": 2604,
      "M10": 2605,
      "M08": 2606,
      "osp": 2607,
      "omin": 2608,
      "incomp": 2609,
      "ung": 2610,
      "terna": 2611,
      "sives": 2612,
      "externa": 2613,
      "ffici": 2614,
      "response": 2615,
      "orthop": 2616,
      "predomin": 2617,
      "predominant": 2618,
      "049": 2619,
      "152": 2620,
      "342": 2621,
      "H04": 2622,
      "eng": 2623,
      "activity": 2624,
      "ticid": 2625,
      "ori": 2626,
      "heel": 2627,
      "tetrac": 2628,
      "ases": 2629,
      "syndromes": 2630,
      "dominant": 2631,
      "monoxide": 2632,
      "rollerskates": 2633,
      "skateboard": 2634,
      "ticides": 2635,
      "149": 2636,
      "133": 2637,
      "252": 2638,
      "4P": 2639,
      "M48": 2640,
      "insu": 2641,
      "turi": 2642,
      "set": 2643,
      "lactic": 2644,
      "endoc": 2645,
      "retro": 2646,
      "mesenteric": 2647,
      "examination": 2648,
      "033": 2649,
      "501": 2650,
      "aw": 2651,
      "gran": 2652,
      "edic": 2653,
      "achi": 2654,
      "activ": 2655,
      "cosis": 2656,
      "material": 2657,
      "phylactic": 2658,
      "agent": 2659,
      "presence": 2660,
      "ureter": 2661,
      "circul": 2662,
      "orthopedic": 2663,
      "531": 2664,
      "T71": 2665,
      "brac": 2666,
      "onset": 2667,
      "dialy": 2668,
      "produc": 2669,
      "hial": 2670,
      "tuberculo": 2671,
      "narco": 2672,
      "isoimmunization": 2673,
      "insuffici": 2674,
      "brachial": 2675,
      "dialysis": 2676,
      "052": 2677,
      "4B": 2678,
      "lec": 2679,
      "sport": 2680,
      "ric": 2681,
      "liosis": 2682,
      "initis": 2683,
      "pertus": 2684,
      "ector": 2685,
      "omic": 2686,
      "capsular": 2687,
      "scrotum": 2688,
      "pertussis": 2689,
      "441": 2690,
      "811": 2691,
      "ury": 2692,
      "oper": 2693,
      "oton": 2694,
      "transi": 2695,
      "general": 2696,
      "cans": 2697,
      "scoliosis": 2698,
      "dorsal": 2699,
      "7t": 2700,
      "S04": 2701,
      "auton": 2702,
      "mni": 2703,
      "oth": 2704,
      "t6": 2705,
      "t11": 2706,
      "t12": 2707,
      "ual": 2708,
      "enoid": 2709,
      "ificans": 2710,
      "phic": 2711,
      "connec": 2712,
      "accidents": 2713,
      "221": 2714,
      "best": 2715,
      "abnormality": 2716,
      "ossificans": 2717,
      "ophthalmos": 2718,
      "magnetic": 2719,
      "hydramni": 2720,
      "autonomic": 2721,
      "hydramnios": 2722,
      "exces": 2723,
      "chin": 2724,
      "preparation": 2725,
      "omatic": 2726,
      "brown": 2727,
      "chorioretinal": 2728,
      "contracep": 2729,
      "excessive": 2730,
      "3G": 2731,
      "3K": 2732,
      "ons": 2733,
      "ecto": 2734,
      "tobac": 2735,
      "neon": 2736,
      "abor": 2737,
      "apy": 2738,
      "tobacco": 2739,
      "M60": 2740,
      "M23": 2741,
      "S23": 2742,
      "T33": 2743,
      "T34": 2744,
      "V95": 2745,
      "atibility": 2746,
      "aring": 2747,
      "hearing": 2748,
      "T80": 2749,
      "premature": 2750,
      "abortion": 2751,
      "451": 2752,
      "M65": 2753,
      "iris": 2754,
      "rane": 2755,
      "rib": 2756,
      "ics": 2757,
      "bike": 2758,
      "progres": 2759,
      "carpal": 2760,
      "membrane": 2761,
      "derangements": 2762,
      "previous": 2763,
      "442": 2764,
      "5G": 2765,
      "5K": 2766,
      "dens": 2767,
      "gases": 2768,
      "nit": 2769,
      "substi": 2770,
      "liary": 2771,
      "pole": 2772,
      "mple": 2773,
      "dysfunction": 2774,
      "mastoid": 2775,
      "laxatives": 2776,
      "incompatibility": 2777,
      "neonatal": 2778,
      "substitu": 2779,
      "S41": 2780,
      "S51": 2781,
      "T53": 2782,
      "V43": 2783,
      "tto": 2784,
      "vation": 2785,
      "terrain": 2786,
      "seven": 2787,
      "simple": 2788,
      "topical": 2789,
      "botto": 2790,
      "ill": 2791,
      "greens": 2792,
      "oneum": 2793,
      "allergic": 2794,
      "allterrain": 2795,
      "viving": 2796,
      "S71": 2797,
      "antipsycho": 2798,
      "S81": 2799,
      "S98": 2800,
      "periprosthetic": 2801,
      "surviving": 2802,
      "animaldra": 2803,
      "cuff": 2804,
      "overboard": 2805,
      "gues": 2806,
      "blocking": 2807,
      "rotator": 2808,
      "narcotics": 2809,
      "preparations": 2810,
      "substitutes": 2811,
      "seventh": 2812,
      "greenstick": 2813,
      "antipsychotics": 2814,
      "animaldrawn": 2815,
      "Y93": 2816,
      "olar": 2817,
      "iasis": 2818,
      "macula": 2819,
      "peritoneum": 2820,
      "pneumonia": 2821,
      "cartilage": 2822,
      "granulo": 2823,
      "activities": 2824,
      "circulatory": 2825,
      "009": 2826,
      "059": 2827,
      "oe": 2828,
      "ps": 2829,
      "ster": 2830,
      "uda": 2831,
      "wal": 2832,
      "heat": 2833,
      "illary": 2834,
      "222": 2835,
      "neuropathy": 2836,
      "adhesion": 2837,
      "connective": 2838,
      "211": 2839,
      "7X": 2840,
      "asis": 2841,
      "ust": 2842,
      "state": 2843,
      "lion": 2844,
      "teg": 2845,
      "matic": 2846,
      "osse": 2847,
      "movement": 2848,
      "mening": 2849,
      "carcinoid": 2850,
      "rect": 2851,
      "dermatitis": 2852,
      "machinery": 2853,
      "endocrine": 2854,
      "002": 2855,
      "5B": 2856,
      "532": 2857,
      "ptic": 2858,
      "icardi": 2859,
      "tymp": 2860,
      "contracture": 2861,
      "cardiovascular": 2862,
      "tarsal": 2863,
      "problems": 2864,
      "tympan": 2865,
      "143": 2866,
      "M66": 2867,
      "zed": 2868,
      "alg": 2869,
      "persist": 2870,
      "explosive": 2871,
      "micro": 2872,
      "plantar": 2873,
      "symptoms": 2874,
      "sexual": 2875,
      "bcell": 2876,
      "plegia": 2877,
      "slip": 2878,
      "t7t": 2879,
      "inosis": 2880,
      "resul": 2881,
      "subcutaneous": 2882,
      "bomb": 2883,
      "bosacral": 2884,
      "corac": 2885,
      "vitamin": 2886,
      "midfoot": 2887,
      "neurostimul": 2888,
      "glenoid": 2889,
      "conditions": 2890,
      "lumbosacral": 2891,
      "dental": 2892,
      "t11t12": 2893,
      "osseous": 2894,
      "239": 2895,
      "3B": 2896,
      "3P": 2897,
      "bart": 2898,
      "pan": 2899,
      "stic": 2900,
      "sens": 2901,
      "arrest": 2902,
      "both": 2903,
      "disrup": 2904,
      "cystic": 2905,
      "arthrosis": 2906,
      "intraabdominal": 2907,
      "elling": 2908,
      "134": 2909,
      "212": 2910,
      "261": 2911,
      "622": 2912,
      "621": 2913,
      "812": 2914,
      "R40": 2915,
      "osynovitis": 2916,
      "ines": 2917,
      "tility": 2918,
      "ste": 2919,
      "tenosynovitis": 2920,
      "dystro": 2921,
      "degenerative": 2922,
      "placental": 2923,
      "gias": 2924,
      "around": 2925,
      "disruption": 2926,
      "452": 2927,
      "5P": 2928,
      "7D": 2929,
      "7S": 2930,
      "9G": 2931,
      "9K": 2932,
      "M06": 2933,
      "XG": 2934,
      "ament": 2935,
      "cend": 2936,
      "kay": 2937,
      "plate": 2938,
      "operative": 2939,
      "bolic": 2940,
      "negl": 2941,
      "native": 2942,
      "natural": 2943,
      "intraoperative": 2944,
      "medicament": 2945,
      "predominantly": 2946,
      "tuberculosis": 2947,
      "neglect": 2948,
      "H05": 2949,
      "cate": 2950,
      "pse": 2951,
      "ved": 2952,
      "titu": 2953,
      "colitis": 2954,
      "opia": 2955,
      "polar": 2956,
      "carri": 2957,
      "mith": 2958,
      "mobile": 2959,
      "ulcerative": 2960,
      "osteochondropath": 2961,
      "deformans": 2962,
      "transient": 2963,
      "adhesions": 2964,
      "pseu": 2965,
      "4XXA": 2966,
      "4XXD": 2967,
      "4XXS": 2968,
      "H21": 2969,
      "M11": 2970,
      "M00": 2971,
      "bed": 2972,
      "cra": 2973,
      "imen": 2974,
      "smith": 2975,
      "quet": 2976,
      "pometacarpal": 2977,
      "carpometacarpal": 2978,
      "influ": 2979,
      "joints": 2980,
      "osteopathy": 2981,
      "calcinosis": 2982,
      "suppur": 2983,
      "enza": 2984,
      "products": 2985,
      "insufficiency": 2986,
      "sensory": 2987,
      "influenza": 2988,
      "339": 2989,
      "Y38": 2990,
      "blin": 2991,
      "gale": 2992,
      "muni": 2993,
      "vent": 2994,
      "zis": 2995,
      "direct": 2996,
      "exuda": 2997,
      "colles": 2998,
      "colliding": 2999,
      "aden": 3000,
      "vitre": 3001,
      "inflat": 3002,
      "corrosive": 3003,
      "hyd": 3004,
      "apsular": 3005,
      "monteg": 3006,
      "intracapsular": 3007,
      "bleph": 3008,
      "animalrider": 3009,
      "spider": 3010,
      "overuse": 3011,
      "hematogenous": 3012,
      "halogen": 3013,
      "valve": 3014,
      "azzis": 3015,
      "hypertensive": 3016,
      "chondrocalcinosis": 3017,
      "neurostimulator": 3018,
      "bartons": 3019,
      "smiths": 3020,
      "suppurative": 3021,
      "blind": 3022,
      "galeazzis": 3023,
      "munitions": 3024,
      "exudative": 3025,
      "inflatable": 3026,
      "monteggias": 3027,
      "109": 3028,
      "6G": 3029,
      "6K": 3030,
      "831": 3031,
      "H11": 3032,
      "cic": 3033,
      "gory": 3034,
      "ers": 3035,
      "alve": 3036,
      "dies": 3037,
      "prolapse": 3038,
      "posttraumatic": 3039,
      "category": 3040,
      "O99": 3041,
      "ber": 3042,
      "vate": 3043,
      "inner": 3044,
      "ses": 3045,
      "opment": 3046,
      "devel": 3047,
      "cyto": 3048,
      "321": 3049,
      "iliac": 3050,
      "development": 3051,
      "102": 3052,
      "262": 3053,
      "311": 3054,
      "S24": 3055,
      "S34": 3056,
      "V80": 3057,
      "fati": 3058,
      "fung": 3059,
      "gin": 3060,
      "sclerosis": 3061,
      "welling": 3062,
      "yl": 3063,
      "aseptic": 3064,
      "testis": 3065,
      "street": 3066,
      "fatigue": 3067,
      "sea": 3068,
      "asy": 3069,
      "tend": 3070,
      "antid": 3071,
      "private": 3072,
      "135": 3073,
      "6B": 3074,
      "832": 3075,
      "M99": 3076,
      "odi": 3077,
      "pus": 3078,
      "ereb": 3079,
      "resi": 3080,
      "ties": 3081,
      "anto": 3082,
      "tozo": 3083,
      "malar": 3084,
      "protozo": 3085,
      "eyeball": 3086,
      "aneury": 3087,
      "intracereb": 3088,
      "canoe": 3089,
      "affected": 3090,
      "icardium": 3091,
      "intracerebral": 3092,
      "9P": 3093,
      "C82": 3094,
      "I63": 3095,
      "S05": 3096,
      "maltreatment": 3097,
      "chrom": 3098,
      "olumbar": 3099,
      "oneur": 3100,
      "ocarp": 3101,
      "bursa": 3102,
      "T26": 3103,
      "thoracolumbar": 3104,
      "complex": 3105,
      "skele": 3106,
      "strepto": 3107,
      "amino": 3108,
      "lunate": 3109,
      "glyc": 3110,
      "firearms": 3111,
      "hemiplegia": 3112,
      "mediate": 3113,
      "anaphylactic": 3114,
      "electrode": 3115,
      "bottom": 3116,
      "kayak": 3117,
      "tendinitis": 3118,
      "ocarpal": 3119,
      "249": 3120,
      "X1": 3121,
      "atic": 3122,
      "aort": 3123,
      "dec": 3124,
      "est": 3125,
      "ection": 3126,
      "ulus": 3127,
      "calci": 3128,
      "fibrin": 3129,
      "intermediate": 3130,
      "hemolytic": 3131,
      "gain": 3132,
      "house": 3133,
      "testes": 3134,
      "aorta": 3135,
      "034": 3136,
      "136": 3137,
      "C44": 3138,
      "ok": 3139,
      "eding": 3140,
      "anomal": 3141,
      "nonautologous": 3142,
      "322": 3143,
      "hemoper": 3144,
      "atitis": 3145,
      "choroidal": 3146,
      "tympanic": 3147,
      "dystrophy": 3148,
      "asymp": 3149,
      "skeletal": 3150,
      "calcium": 3151,
      "6P": 3152,
      "sle": 3153,
      "off": 3154,
      "unar": 3155,
      "intraocular": 3156,
      "calculus": 3157,
      "ame": 3158,
      "blindness": 3159,
      "hemopericardium": 3160,
      "sleep": 3161,
      "043": 3162,
      "E11": 3163,
      "E09": 3164,
      "E13": 3165,
      "E08": 3166,
      "blic": 3167,
      "hss": 3168,
      "insta": 3169,
      "subacute": 3170,
      "asth": 3171,
      "boid": 3172,
      "ionic": 3173,
      "itate": 3174,
      "penia": 3175,
      "hook": 3176,
      "nihss": 3177,
      "public": 3178,
      "seroma": 3179,
      "overlap": 3180,
      "rectum": 3181,
      "deficits": 3182,
      "ganglion": 3183,
      "deformities": 3184,
      "granuloma": 3185,
      "M93": 3186,
      "estro": 3187,
      "odon": 3188,
      "vap": 3189,
      "orbi": 3190,
      "entropion": 3191,
      "sequard": 3192,
      "losure": 3193,
      "ischem": 3194,
      "carb": 3195,
      "thromb": 3196,
      "turb": 3197,
      "chest": 3198,
      "acids": 3199,
      "glyco": 3200,
      "enzy": 3201,
      "melanoma": 3202,
      "brownsequard": 3203,
      "medicaments": 3204,
      "vapors": 3205,
      "ischemic": 3206,
      "035": 3207,
      "144": 3208,
      "2part": 3209,
      "312": 3210,
      "841": 3211,
      "E10": 3212,
      "H53": 3213,
      "T52": 3214,
      "T60": 3215,
      "V92": 3216,
      "X0": 3217,
      "aor": 3218,
      "jaw": 3219,
      "t5": 3220,
      "t9": 3221,
      "t10": 3222,
      "unpowered": 3223,
      "semil": 3224,
      "siform": 3225,
      "andos": 3226,
      "chip": 3227,
      "illes": 3228,
      "disturb": 3229,
      "S64": 3230,
      "osteolysis": 3231,
      "contents": 3232,
      "transcondylar": 3233,
      "explosives": 3234,
      "triquet": 3235,
      "pisiform": 3236,
      "quadri": 3237,
      "cuboid": 3238,
      "achilles": 3239,
      "rolandos": 3240,
      "fixedwing": 3241,
      "smaller": 3242,
      "capitate": 3243,
      "magnum": 3244,
      "acromial": 3245,
      "thrown": 3246,
      "sinus": 3247,
      "trapezoid": 3248,
      "trapezium": 3249,
      "muco": 3250,
      "coracoid": 3251,
      "streetcar": 3252,
      "semilunar": 3253,
      "triquetrum": 3254,
      "091": 3255,
      "061": 3256,
      "233": 3257,
      "411": 3258,
      "5XXA": 3259,
      "5XXD": 3260,
      "5XXS": 3261,
      "tine": 3262,
      "enti": 3263,
      "specimen": 3264,
      "sign": 3265,
      "andro": 3266,
      "fever": 3267,
      "lymphocy": 3268,
      "angi": 3269,
      "myco": 3270,
      "retina": 3271,
      "keratitis": 3272,
      "specimens": 3273,
      "036": 3274,
      "159": 3275,
      "XK": 3276,
      "bar": 3277,
      "lator": 3278,
      "win": 3279,
      "ache": 3280,
      "acia": 3281,
      "anth": 3282,
      "anticoagul": 3283,
      "819": 3284,
      "facial": 3285,
      "diagn": 3286,
      "retroperitoneum": 3287,
      "539": 3288,
      "842": 3289,
      "8XXA": 3290,
      "8XXD": 3291,
      "8XXS": 3292,
      "ape": 3293,
      "eust": 3294,
      "gall": 3295,
      "smo": 3296,
      "utic": 3297,
      "cogn": 3298,
      "therape": 3299,
      "itive": 3300,
      "bilic": 3301,
      "tism": 3302,
      "ostomy": 3303,
      "mbling": 3304,
      "headache": 3305,
      "neural": 3306,
      "hematolo": 3307,
      "ropia": 3308,
      "pare": 3309,
      "cervix": 3310,
      "rhythm": 3311,
      "achian": 3312,
      "overlapping": 3313,
      "eustachian": 3314,
      "cognitive": 3315,
      "therapeutic": 3316,
      "092": 3317,
      "C84": 3318,
      "H47": 3319,
      "semin": 3320,
      "roportion": 3321,
      "disproportion": 3322,
      "nonbiological": 3323,
      "hepati": 3324,
      "ostic": 3325,
      "migra": 3326,
      "comm": 3327,
      "trip": 3328,
      "ogenic": 3329,
      "serous": 3330,
      "urethra": 3331,
      "aortic": 3332,
      "diagnostic": 3333,
      "hepatitis": 3334,
      "migraine": 3335,
      "359": 3336,
      "land": 3337,
      "ugh": 3338,
      "another": 3339,
      "dig": 3340,
      "asal": 3341,
      "cellulitis": 3342,
      "cultural": 3343,
      "ambul": 3344,
      "combined": 3345,
      "vitreous": 3346,
      "gallbladder": 3347,
      "349": 3348,
      "851": 3349,
      "L02": 3350,
      "dac": 3351,
      "plas": 3352,
      "pped": 3353,
      "utility": 3354,
      "wor": 3355,
      "sting": 3356,
      "trapped": 3357,
      "dissec": 3358,
      "selective": 3359,
      "risk": 3360,
      "episo": 3361,
      "hered": 3362,
      "hernia": 3363,
      "angitis": 3364,
      "ilio": 3365,
      "stumbling": 3366,
      "culopathy": 3367,
      "take": 3368,
      "slipping": 3369,
      "tripping": 3370,
      "digital": 3371,
      "511": 3372,
      "839": 3373,
      "bec": 3374,
      "mone": 3375,
      "intrathoracic": 3376,
      "hosp": 3377,
      "epigastric": 3378,
      "thrombotic": 3379,
      "coccus": 3380,
      "hormone": 3381,
      "hydrogen": 3382,
      "145": 3383,
      "412": 3384,
      "601": 3385,
      "852": 3386,
      "O30": 3387,
      "same": 3388,
      "alph": 3389,
      "eld": 3390,
      "sity": 3391,
      "lities": 3392,
      "ciliary": 3393,
      "dissemin": 3394,
      "111A": 3395,
      "111D": 3396,
      "111S": 3397,
      "cephal": 3398,
      "421": 3399,
      "ophlebitis": 3400,
      "angina": 3401,
      "alized": 3402,
      "periumbilic": 3403,
      "polyneuropathy": 3404,
      "oxy": 3405,
      "generalized": 3406,
      "thrombophlebitis": 3407,
      "disseminated": 3408,
      "M70": 3409,
      "S13": 3410,
      "gm": 3411,
      "line": 3412,
      "yp": 3413,
      "insul": 3414,
      "onent": 3415,
      "ick": 3416,
      "injection": 3417,
      "construction": 3418,
      "S67": 3419,
      "radiculopathy": 3420,
      "component": 3421,
      "iditis": 3422,
      "means": 3423,
      "pyre": 3424,
      "analges": 3425,
      "problem": 3426,
      "spasm": 3427,
      "otropic": 3428,
      "crash": 3429,
      "hematological": 3430,
      "hereditary": 3431,
      "hospital": 3432,
      "insulin": 3433,
      "146": 3434,
      "343": 3435,
      "c5": 3436,
      "ds": 3437,
      "tting": 3438,
      "ofi": 3439,
      "ingest": 3440,
      "malfunction": 3441,
      "tein": 3442,
      "idural": 3443,
      "chamb": 3444,
      "corti": 3445,
      "422": 3446,
      "metal": 3447,
      "clic": 3448,
      "infanti": 3449,
      "agri": 3450,
      "epidural": 3451,
      "anglec": 3452,
      "nico": 3453,
      "tumor": 3454,
      "lapsed": 3455,
      "ingested": 3456,
      "infantile": 3457,
      "angleclosure": 3458,
      "271": 3459,
      "512": 3460,
      "K08": 3461,
      "XB": 3462,
      "abo": 3463,
      "cru": 3464,
      "cranial": 3465,
      "iri": 3466,
      "zard": 3467,
      "zene": 3468,
      "indu": 3469,
      "fitting": 3470,
      "lepsy": 3471,
      "tura": 3472,
      "diure": 3473,
      "atri": 3474,
      "119": 3475,
      "rub": 3476,
      "01XA": 3477,
      "01XD": 3478,
      "01XS": 3479,
      "antifung": 3480,
      "mides": 3481,
      "ranch": 3482,
      "amn": 3483,
      "psychotropic": 3484,
      "cry": 3485,
      "benzene": 3486,
      "cyclitis": 3487,
      "origin": 3488,
      "asthma": 3489,
      "ambulance": 3490,
      "dacry": 3491,
      "corticoid": 3492,
      "nicotine": 3493,
      "antifungal": 3494,
      "259": 3495,
      "309": 3496,
      "H60": 3497,
      "M90": 3498,
      "S10": 3499,
      "S44": 3500,
      "T51": 3501,
      "T61": 3502,
      "T57": 3503,
      "W21": 3504,
      "W61": 3505,
      "auri": 3506,
      "c6": 3507,
      "cre": 3508,
      "pector": 3509,
      "ubic": 3510,
      "inc": 3511,
      "insec": 3512,
      "onation": 3513,
      "onboard": 3514,
      "uncontrolled": 3515,
      "reup": 3516,
      "regain": 3517,
      "antic": 3518,
      "tures": 3519,
      "cop": 3520,
      "dication": 3521,
      "diaz": 3522,
      "quam": 3523,
      "sides": 3524,
      "stom": 3525,
      "nonopioid": 3526,
      "opubic": 3527,
      "perpe": 3528,
      "sequelae": 3529,
      "trator": 3530,
      "shell": 3531,
      "ectropion": 3532,
      "gest": 3533,
      "abductor": 3534,
      "collapsed": 3535,
      "adductor": 3536,
      "parasymp": 3537,
      "vehyp": 3538,
      "radiocarpal": 3539,
      "ologues": 3540,
      "lytic": 3541,
      "antiinflammatory": 3542,
      "antiepileptic": 3543,
      "antipyre": 3544,
      "219": 3545,
      "transverseposterior": 3546,
      "periodon": 3547,
      "myopathy": 3548,
      "ativehyp": 3549,
      "vasodi": 3550,
      "psychostimul": 3551,
      "triceps": 3552,
      "benzo": 3553,
      "amine": 3554,
      "olytics": 3555,
      "cysts": 3556,
      "iliopubic": 3557,
      "betaadrenoreceptor": 3558,
      "horn": 3559,
      "holin": 3560,
      "seroton": 3561,
      "detonation": 3562,
      "psychodys": 3563,
      "hydrocarbon": 3564,
      "sedativehyp": 3565,
      "ischial": 3566,
      "blockers": 3567,
      "olysisaffecting": 3568,
      "homologues": 3569,
      "tetracy": 3570,
      "turity": 3571,
      "nitro": 3572,
      "t7t8": 3573,
      "cytopenia": 3574,
      "fibrinolysisaffecting": 3575,
      "estrogens": 3576,
      "glycosides": 3577,
      "t5t6": 3578,
      "t9t10": 3579,
      "quadriceps": 3580,
      "androgens": 3581,
      "lators": 3582,
      "paresis": 3583,
      "ilioischial": 3584,
      "alphaadrenoreceptor": 3585,
      "chamber": 3586,
      "agricultural": 3587,
      "diuretics": 3588,
      "corticoids": 3589,
      "pectoris": 3590,
      "insecticides": 3591,
      "reuptake": 3592,
      "regaining": 3593,
      "anticholin": 3594,
      "quamous": 3595,
      "perpetrator": 3596,
      "parasympath": 3597,
      "vasodilators": 3598,
      "psychostimulants": 3599,
      "serotonin": 3600,
      "psychodysleptics": 3601,
      "hydrocarbons": 3602,
      "sedativehypnotic": 3603,
      "541": 3604,
      "631": 3605,
      "901": 3606,
      "malacia": 3607,
      "aryn": 3608,
      "02XA": 3609,
      "02XD": 3610,
      "02XS": 3611,
      "fibro": 3612,
      "herpes": 3613,
      "uria": 3614,
      "011A": 3615,
      "011D": 3616,
      "011S": 3617,
      "arterio": 3618,
      "sepsis": 3619,
      "cervico": 3620,
      "oligo": 3621,
      "orbital": 3622,
      "signs": 3623,
      "243": 3624,
      "C81": 3625,
      "C83": 3626,
      "M46": 3627,
      "M26": 3628,
      "O35": 3629,
      "O69": 3630,
      "ose": 3631,
      "ton": 3632,
      "ertion": 3633,
      "uncomplicated": 3634,
      "alk": 3635,
      "letal": 3636,
      "otropia": 3637,
      "poor": 3638,
      "821": 3639,
      "compart": 3640,
      "92XA": 3641,
      "92XD": 3642,
      "92XS": 3643,
      "91XA": 3644,
      "91XD": 3645,
      "91XS": 3646,
      "institu": 3647,
      "hemorrhag": 3648,
      "myoc": 3649,
      "spondylosis": 3650,
      "prior": 3651,
      "auricular": 3652,
      "cervicothoracic": 3653,
      "compartment": 3654,
      "044": 3655,
      "209": 3656,
      "344": 3657,
      "443": 3658,
      "H26": 3659,
      "S09": 3660,
      "V96": 3661,
      "blun": 3662,
      "drain": 3663,
      "squamous": 3664,
      "field": 3665,
      "chi": 3666,
      "cholec": 3667,
      "muscu": 3668,
      "loske": 3669,
      "112A": 3670,
      "112D": 3671,
      "112S": 3672,
      "adrenal": 3673,
      "bleeding": 3674,
      "coccy": 3675,
      "lump": 3676,
      "persistent": 3677,
      "cending": 3678,
      "industri": 3679,
      "blunt": 3680,
      "cholecy": 3681,
      "musculoske": 3682,
      "musculoskeletal": 3683,
      "302": 3684,
      "391": 3685,
      "345": 3686,
      "H10": 3687,
      "O26": 3688,
      "c4": 3689,
      "eous": 3690,
      "ging": 3691,
      "hang": 3692,
      "used": 3693,
      "muscular": 3694,
      "ankylo": 3695,
      "terization": 3696,
      "medical": 3697,
      "mood": 3698,
      "sacro": 3699,
      "causes": 3700,
      "thrombocytopenia": 3701,
      "catheterization": 3702,
      "sensi": 3703,
      "instability": 3704,
      "272": 3705,
      "861": 3706,
      "871": 3707,
      "862": 3708,
      "872": 3709,
      "bre": 3710,
      "branch": 3711,
      "fu": 3712,
      "iter": 3713,
      "sical": 3714,
      "scar": 3715,
      "ero": 3716,
      "orm": 3717,
      "ricular": 3718,
      "ice": 3719,
      "conver": 3720,
      "protein": 3721,
      "129": 3722,
      "121A": 3723,
      "121D": 3724,
      "121S": 3725,
      "mili": 3726,
      "calf": 3727,
      "antiinfective": 3728,
      "emato": 3729,
      "safe": 3730,
      "012A": 3731,
      "012D": 3732,
      "012S": 3733,
      "hypoglyc": 3734,
      "gonococcal": 3735,
      "anomalies": 3736,
      "smoke": 3737,
      "stomach": 3738,
      "industrial": 3739,
      "ankylosis": 3740,
      "202": 3741,
      "346": 3742,
      "551": 3743,
      "H59": 3744,
      "amph": 3745,
      "bath": 3746,
      "buck": 3747,
      "ballo": 3748,
      "oto": 3749,
      "pla": 3750,
      "arterial": 3751,
      "withdra": 3752,
      "ura": 3753,
      "siva": 3754,
      "othering": 3755,
      "ciate": 3756,
      "confla": 3757,
      "duod": 3758,
      "023": 3759,
      "antiparasi": 3760,
      "penetrating": 3761,
      "animals": 3762,
      "dural": 3763,
      "gravid": 3764,
      "substanceinduced": 3765,
      "eryth": 3766,
      "ergics": 3767,
      "smothering": 3768,
      "progressiva": 3769,
      "cruciate": 3770,
      "safety": 3771,
      "balloon": 3772,
      "withdrawal": 3773,
      "conflagra": 3774,
      "duoden": 3775,
      "antiparasitics": 3776,
      "046": 3777,
      "045": 3778,
      "234": 3779,
      "335": 3780,
      "542": 3781,
      "H33": 3782,
      "aspira": 3783,
      "uth": 3784,
      "rate": 3785,
      "shock": 3786,
      "physical": 3787,
      "013": 3788,
      "pressive": 3789,
      "069": 3790,
      "epilepsy": 3791,
      "septum": 3792,
      "episode": 3793,
      "irido": 3794,
      "arteriovenous": 3795,
      "cholecystitis": 3796,
      "392": 3797,
      "H61": 3798,
      "O09": 3799,
      "gium": 3800,
      "nut": 3801,
      "xy": 3802,
      "live": 3803,
      "phlebitis": 3804,
      "chol": 3805,
      "prostate": 3806,
      "XXXA": 3807,
      "XXXD": 3808,
      "XXXS": 3809,
      "terygium": 3810,
      "multifocal": 3811,
      "sacs": 3812,
      "tumors": 3813,
      "hydrops": 3814,
      "alcoholinduced": 3815,
      "continuity": 3816,
      "median": 3817,
      "chole": 3818,
      "resulting": 3819,
      "hemorrhagic": 3820,
      "aspiration": 3821,
      "153": 3822,
      "236": 3823,
      "256": 3824,
      "336": 3825,
      "S39": 3826,
      "W56": 3827,
      "W55": 3828,
      "cri": 3829,
      "pple": 3830,
      "uinal": 3831,
      "incident": 3832,
      "tives": 3833,
      "inguinal": 3834,
      "exha": 3835,
      "fibrosis": 3836,
      "nipple": 3837,
      "fetalis": 3838,
      "clau": 3839,
      "auto": 3840,
      "ocytic": 3841,
      "symptomatic": 3842,
      "encephalitis": 3843,
      "pseudo": 3844,
      "291": 3845,
      "235": 3846,
      "H15": 3847,
      "c1": 3848,
      "eff": 3849,
      "tcell": 3850,
      "was": 3851,
      "onitis": 3852,
      "ican": 3853,
      "subdural": 3854,
      "bodies": 3855,
      "confir": 3856,
      "poli": 3857,
      "max": 3858,
      "health": 3859,
      "113": 3860,
      "122A": 3861,
      "122D": 3862,
      "122S": 3863,
      "human": 3864,
      "229": 3865,
      "T86": 3866,
      "angu": 3867,
      "reactive": 3868,
      "lesions": 3869,
      "defects": 3870,
      "anxiolyticinduced": 3871,
      "home": 3872,
      "movements": 3873,
      "milial": 3874,
      "liveborn": 3875,
      "incidents": 3876,
      "claudication": 3877,
      "632": 3878,
      "801": 3879,
      "gents": 3880,
      "hed": 3881,
      "siological": 3882,
      "tooth": 3883,
      "partum": 3884,
      "123": 3885,
      "cytolo": 3886,
      "physiological": 3887,
      "antibodies": 3888,
      "detergents": 3889,
      "3039": 3890,
      "spondylopathy": 3891,
      "reased": 3892,
      "furuncle": 3893,
      "carbuncle": 3894,
      "myocardi": 3895,
      "poliomyelitis": 3896,
      "552": 3897,
      "O98": 3898,
      "T62": 3899,
      "T54": 3900,
      "T58": 3901,
      "bal": 3902,
      "c2": 3903,
      "c3": 3904,
      "hair": 3905,
      "jac": 3906,
      "odystrophy": 3907,
      "onment": 3908,
      "thus": 3909,
      "ref": 3910,
      "tization": 3911,
      "nondominant": 3912,
      "021A": 3913,
      "021D": 3914,
      "021S": 3915,
      "carpus": 3916,
      "pathies": 3917,
      "volar": 3918,
      "skis": 3919,
      "canthus": 3920,
      "keratoconjunctivitis": 3921,
      "hallucinogens": 3922,
      "coagulation": 3923,
      "hemiparesis": 3924,
      "engine": 3925,
      "washed": 3926,
      "confirmed": 3927,
      "244": 3928,
      "2029": 3929,
      "471": 3930,
      "611": 3931,
      "6XXA": 3932,
      "6XXD": 3933,
      "6XXS": 3934,
      "H31": 3935,
      "Z85": 3936,
      "bmi": 3937,
      "ll": 3938,
      "diver": 3939,
      "emic": 3940,
      "dermato": 3941,
      "pox": 3942,
      "cava": 3943,
      "822": 3944,
      "319": 3945,
      "trig": 3946,
      "glass": 3947,
      "childho": 3948,
      "familial": 3949,
      "solitary": 3950,
      "nodular": 3951,
      "failed": 3952,
      "tail": 3953,
      "hypertrophic": 3954,
      "ribs": 3955,
      "steato": 3956,
      "hydr": 3957,
      "191": 3958,
      "446": 3959,
      "7XXA": 3960,
      "7XXD": 3961,
      "7XXS": 3962,
      "859": 3963,
      "F19": 3964,
      "X9": 3965,
      "bra": 3966,
      "glu": 3967,
      "she": 3968,
      "twin": 3969,
      "room": 3970,
      "short": 3971,
      "malpresentation": 3972,
      "openangle": 3973,
      "ionitis": 3974,
      "vena": 3975,
      "fetu": 3976,
      "00XA": 3977,
      "00XD": 3978,
      "00XS": 3979,
      "motion": 3980,
      "hole": 3981,
      "niture": 3982,
      "spondylopathies": 3983,
      "conjunctiva": 3984,
      "metabolic": 3985,
      "vaginal": 3986,
      "glomer": 3987,
      "flail": 3988,
      "chorioamn": 3989,
      "furniture": 3990,
      "deposit": 3991,
      "ventricular": 3992,
      "streptococcal": 3993,
      "nutri": 3994,
      "childhood": 3995,
      "sheath": 3996,
      "chorioamnionitis": 3997,
      "161": 3998,
      "292": 3999,
      "245": 4000,
      "449": 4001,
      "612": 4002,
      "849": 4003,
      "I83": 4004,
      "R29": 4005,
      "S33": 4006,
      "del": 4007,
      "kit": 4008,
      "unt": 4009,
      "unic": 4010,
      "remo": 4011,
      "reflu": 4012,
      "costal": 4013,
      "aromatic": 4014,
      "elective": 4015,
      "lous": 4016,
      "nonmagnetic": 4017,
      "lag": 4018,
      "oneph": 4019,
      "lymphangitis": 4020,
      "vascul": 4021,
      "stiff": 4022,
      "stricture": 4023,
      "polyhydramnios": 4024,
      "ophthalmic": 4025,
      "through": 4026,
      "prematurity": 4027,
      "pigmentary": 4028,
      "cross": 4029,
      "oligohydramnios": 4030,
      "sensitization": 4031,
      "iridocyclitis": 4032,
      "effusion": 4033,
      "reflux": 4034,
      "vasculitis": 4035,
      "192": 4036,
      "246": 4037,
      "H30": 4038,
      "O32": 4039,
      "O29": 4040,
      "O64": 4041,
      "bat": 4042,
      "c7": 4043,
      "ight": 4044,
      "papy": 4045,
      "pterygium": 4046,
      "voc": 4047,
      "entitis": 4048,
      "raceous": 4049,
      "stomy": 4050,
      "bipolar": 4051,
      "11XA": 4052,
      "11XD": 4053,
      "11XS": 4054,
      "12XA": 4055,
      "12XD": 4056,
      "12XS": 4057,
      "022A": 4058,
      "022D": 4059,
      "022S": 4060,
      "viable": 4061,
      "agement": 4062,
      "361": 4063,
      "362": 4064,
      "intercostal": 4065,
      "antia": 4066,
      "nodu": 4067,
      "rhesus": 4068,
      "myopia": 4069,
      "placentitis": 4070,
      "management": 4071,
      "severity": 4072,
      "bug": 4073,
      "hns": 4074,
      "globe": 4075,
      "crohns": 4076,
      "ectomy": 4077,
      "blephar": 4078,
      "cholesteato": 4079,
      "lagophthalmos": 4080,
      "papyraceous": 4081,
      "549": 4082,
      "M41": 4083,
      "T32": 4084,
      "T31": 4085,
      "fat": 4086,
      "fum": 4087,
      "ide": 4088,
      "ked": 4089,
      "rt": 4090,
      "time": 4091,
      "urce": 4092,
      "tension": 4093,
      "peti": 4094,
      "119A": 4095,
      "119D": 4096,
      "119S": 4097,
      "omnia": 4098,
      "oplastic": 4099,
      "weight": 4100,
      "mach": 4101,
      "source": 4102,
      "myelopathy": 4103,
      "materials": 4104,
      "sports": 4105,
      "contraceptives": 4106,
      "protozoal": 4107,
      "removal": 4108,
      "vocal": 4109,
      "fumes": 4110,
      "C50": 4111,
      "H50": 4112,
      "S48": 4113,
      "S54": 4114,
      "S58": 4115,
      "T79": 4116,
      "dune": 4117,
      "dwelling": 4118,
      "equ": 4119,
      "ky": 4120,
      "mor": 4121,
      "sar": 4122,
      "t2": 4123,
      "offro": 4124,
      "indwelling": 4125,
      "retion": 4126,
      "dirt": 4127,
      "ich": 4128,
      "andle": 4129,
      "atv": 4130,
      "shunt": 4131,
      "lamp": 4132,
      "cold": 4133,
      "donor": 4134,
      "S78": 4135,
      "secretion": 4136,
      "motorcross": 4137,
      "teria": 4138,
      "odular": 4139,
      "T28": 4140,
      "S88": 4141,
      "S94": 4142,
      "ureteral": 4143,
      "cerebell": 4144,
      "waterskis": 4145,
      "flexion": 4146,
      "neurological": 4147,
      "ethandle": 4148,
      "overturn": 4149,
      "sometatarsal": 4150,
      "stimulator": 4151,
      "terrorist": 4152,
      "neuromuscular": 4153,
      "synovial": 4154,
      "stimulantinduced": 4155,
      "tarsometatarsal": 4156,
      "sinking": 4157,
      "cocaineinduced": 4158,
      "chondromalacia": 4159,
      "snowmobile": 4160,
      "contraceptive": 4161,
      "ectopic": 4162,
      "landing": 4163,
      "ofibular": 4164,
      "aryng": 4165,
      "coccygeal": 4166,
      "sacrococcygeal": 4167,
      "buckethandle": 4168,
      "nodule": 4169,
      "buggy": 4170,
      "machine": 4171,
      "offroad": 4172,
      "cerebellum": 4173,
      "overturning": 4174,
      "162": 4175,
      "F13": 4176,
      "L03": 4177,
      "evid": 4178,
      "flo": 4179,
      "oiditis": 4180,
      "access": 4181,
      "lets": 4182,
      "foli": 4183,
      "phosis": 4184,
      "aller": 4185,
      "oculo": 4186,
      "commer": 4187,
      "aplastic": 4188,
      "461": 4189,
      "462": 4190,
      "aftercare": 4191,
      "101A": 4192,
      "101D": 4193,
      "101S": 4194,
      "deficit": 4195,
      "staphylococcal": 4196,
      "carrier": 4197,
      "evidence": 4198,
      "commercial": 4199,
      "211A": 4200,
      "211D": 4201,
      "211S": 4202,
      "641": 4203,
      "O34": 4204,
      "O60": 4205,
      "are": 4206,
      "balan": 4207,
      "ful": 4208,
      "hosti": 4209,
      "lanto": 4210,
      "spe": 4211,
      "tia": 4212,
      "loose": 4213,
      "ciga": 4214,
      "atlanto": 4215,
      "exfoli": 4216,
      "chal": 4217,
      "mination": 4218,
      "521": 4219,
      "019A": 4220,
      "019D": 4221,
      "019S": 4222,
      "hyte": 4223,
      "hemarthrosis": 4224,
      "early": 4225,
      "noxi": 4226,
      "axial": 4227,
      "mmun": 4228,
      "bacteria": 4229,
      "10XA": 4230,
      "10XD": 4231,
      "10XS": 4232,
      "062": 4233,
      "osteophyte": 4234,
      "hypop": 4235,
      "brainstem": 4236,
      "globul": 4237,
      "chromos": 4238,
      "communic": 4239,
      "erosion": 4240,
      "kyphosis": 4241,
      "cigaret": 4242,
      "atlantoaxial": 4243,
      "noxious": 4244,
      "200": 4245,
      "559": 4246,
      "561": 4247,
      "H01": 4248,
      "T78": 4249,
      "X5": 4250,
      "celi": 4251,
      "pup": 4252,
      "incar": 4253,
      "spac": 4254,
      "rium": 4255,
      "hepa": 4256,
      "antine": 4257,
      "parkin": 4258,
      "toxin": 4259,
      "posti": 4260,
      "appli": 4261,
      "algia": 4262,
      "accessory": 4263,
      "allergy": 4264,
      "exfoliation": 4265,
      "globulin": 4266,
      "celiac": 4267,
      "antineoplastic": 4268,
      "parkinson": 4269,
      "436": 4270,
      "M43": 4271,
      "ken": 4272,
      "kel": 4273,
      "pap": 4274,
      "scho": 4275,
      "ud": 4276,
      "alga": 4277,
      "rat": 4278,
      "like": 4279,
      "verbal": 4280,
      "522": 4281,
      "burs": 4282,
      "hia": 4283,
      "infant": 4284,
      "oblastic": 4285,
      "09XA": 4286,
      "09XD": 4287,
      "09XS": 4288,
      "testicular": 4289,
      "fare": 4290,
      "hydroxy": 4291,
      "lips": 4292,
      "001A": 4293,
      "001D": 4294,
      "001S": 4295,
      "position": 4296,
      "throat": 4297,
      "density": 4298,
      "spastic": 4299,
      "osteochondropathy": 4300,
      "crystal": 4301,
      "erythemato": 4302,
      "fetuses": 4303,
      "stiffness": 4304,
      "speech": 4305,
      "mmunization": 4306,
      "hepatic": 4307,
      "postimmunization": 4308,
      "parkinsonism": 4309,
      "school": 4310,
      "algae": 4311,
      "263": 4312,
      "212A": 4313,
      "212D": 4314,
      "212S": 4315,
      "311A": 4316,
      "311D": 4317,
      "311S": 4318,
      "402": 4319,
      "651": 4320,
      "639": 4321,
      "H93": 4322,
      "K51": 4323,
      "M19": 4324,
      "M79": 4325,
      "Z89": 4326,
      "bag": 4327,
      "fel": 4328,
      "sol": 4329,
      "vil": 4330,
      "inorganic": 4331,
      "alli": 4332,
      "termination": 4333,
      "cots": 4334,
      "sil": 4335,
      "aten": 4336,
      "eme": 4337,
      "ostotic": 4338,
      "wasting": 4339,
      "rheumatism": 4340,
      "airway": 4341,
      "psychological": 4342,
      "trich": 4343,
      "pito": 4344,
      "charcots": 4345,
      "chorionic": 4346,
      "dysenteric": 4347,
      "pneumococcal": 4348,
      "combat": 4349,
      "pigmented": 4350,
      "transplanted": 4351,
      "scleritis": 4352,
      "ylene": 4353,
      "seafood": 4354,
      "decreased": 4355,
      "disturbances": 4356,
      "fibrous": 4357,
      "floor": 4358,
      "hostilities": 4359,
      "491": 4360,
      "F10": 4361,
      "M14": 4362,
      "O43": 4363,
      "V59": 4364,
      "V49": 4365,
      "V39": 4366,
      "V69": 4367,
      "V19": 4368,
      "V29": 4369,
      "V79": 4370,
      "bin": 4371,
      "ded": 4372,
      "eaten": 4373,
      "gus": 4374,
      "hlor": 4375,
      "ied": 4376,
      "kas": 4377,
      "oter": 4378,
      "oeth": 4379,
      "oxide": 4380,
      "indrom": 4381,
      "restriction": 4382,
      "reiter": 4383,
      "tiles": 4384,
      "eclamp": 4385,
      "ante": 4386,
      "anol": 4387,
      "fide": 4388,
      "coud": 4389,
      "rifle": 4390,
      "dioxide": 4391,
      "rovis": 4392,
      "phatic": 4393,
      "conven": 4394,
      "condens": 4395,
      "petro": 4396,
      "forehead": 4397,
      "neovascular": 4398,
      "olus": 4399,
      "olved": 4400,
      "829": 4401,
      "traumatica": 4402,
      "pedes": 4403,
      "099": 4404,
      "21XA": 4405,
      "21XD": 4406,
      "21XS": 4407,
      "apati": 4408,
      "monostotic": 4409,
      "calcific": 4410,
      "improvis": 4411,
      "aliphatic": 4412,
      "osteoarthropathy": 4413,
      "postrheumatic": 4414,
      "postdysenteric": 4415,
      "neuron": 4416,
      "lonodular": 4417,
      "warfare": 4418,
      "osteochondritis": 4419,
      "surgically": 4420,
      "enteropathic": 4421,
      "fluorosis": 4422,
      "resolved": 4423,
      "phenol": 4424,
      "scooter": 4425,
      "1019": 4426,
      "sulfide": 4427,
      "opioidinduced": 4428,
      "palindrom": 4429,
      "occipito": 4430,
      "paint": 4431,
      "forced": 4432,
      "mastoiditis": 4433,
      "occiput": 4434,
      "previa": 4435,
      "chlorof": 4436,
      "deposition": 4437,
      "cessation": 4438,
      "inhalantinduced": 4439,
      "reptiles": 4440,
      "tetrachlor": 4441,
      "chinbec": 4442,
      "algoneur": 4443,
      "osteochondropathies": 4444,
      "alveolus": 4445,
      "aneurysmal": 4446,
      "dissecans": 4447,
      "rubber": 4448,
      "created": 4449,
      "herpesviral": 4450,
      "draining": 4451,
      "duodenum": 4452,
      "jaccoud": 4453,
      "hydrarthrosis": 4454,
      "cholesteatoma": 4455,
      "bursopathies": 4456,
      "hydroxyapati": 4457,
      "villonodular": 4458,
      "kaschinbec": 4459,
      "oethylene": 4460,
      "reiters": 4461,
      "eclampsia": 4462,
      "antepartum": 4463,
      "conventional": 4464,
      "condensans": 4465,
      "neovascularization": 4466,
      "improvised": 4467,
      "palindromic": 4468,
      "occipitoatlantoaxial": 4469,
      "algoneurodystrophy": 4470,
      "hydroxyapatite": 4471,
      "kaschinbeck": 4472,
      "102A": 4473,
      "102D": 4474,
      "102S": 4475,
      "459": 4476,
      "G40": 4477,
      "I25": 4478,
      "M13": 4479,
      "leng": 4480,
      "pl": 4481,
      "pru": 4482,
      "plastic": 4483,
      "tuitary": 4484,
      "round": 4485,
      "total": 4486,
      "identi": 4487,
      "prop": 4488,
      "eyes": 4489,
      "salping": 4490,
      "22XA": 4491,
      "22XD": 4492,
      "22XS": 4493,
      "221A": 4494,
      "221D": 4495,
      "221S": 4496,
      "419": 4497,
      "813": 4498,
      "tissues": 4499,
      "pituitary": 4500,
      "pancrea": 4501,
      "sclerosing": 4502,
      "meningitis": 4503,
      "proteinuria": 4504,
      "maxillary": 4505,
      "length": 4506,
      "pruri": 4507,
      "002A": 4508,
      "002D": 4509,
      "002S": 4510,
      "571": 4511,
      "572": 4512,
      "642": 4513,
      "811A": 4514,
      "811D": 4515,
      "811S": 4516,
      "F15": 4517,
      "molar": 4518,
      "nk": 4519,
      "ovari": 4520,
      "pin": 4521,
      "pau": 4522,
      "sick": 4523,
      "ellar": 4524,
      "sible": 4525,
      "ciarticular": 4526,
      "opac": 4527,
      "tical": 4528,
      "tys": 4529,
      "mature": 4530,
      "129A": 4531,
      "129D": 4532,
      "129S": 4533,
      "omas": 4534,
      "obser": 4535,
      "dow": 4536,
      "merkel": 4537,
      "90XA": 4538,
      "90XD": 4539,
      "90XS": 4540,
      "clerotic": 4541,
      "epilepticus": 4542,
      "alveolar": 4543,
      "feltys": 4544,
      "ovarian": 4545,
      "pauciarticular": 4546,
      "observation": 4547,
      "100": 4548,
      "156": 4549,
      "F14": 4550,
      "H34": 4551,
      "M47": 4552,
      "T18": 4553,
      "W18": 4554,
      "center": 4555,
      "langu": 4556,
      "wear": 4557,
      "estic": 4558,
      "chang": 4559,
      "iron": 4560,
      "S74": 4561,
      "gative": 4562,
      "S84": 4563,
      "S97": 4564,
      "moving": 4565,
      "macro": 4566,
      "ligaments": 4567,
      "cystostomy": 4568,
      "glands": 4569,
      "positive": 4570,
      "oxid": 4571,
      "hallucinogeninduced": 4572,
      "carried": 4573,
      "adeno": 4574,
      "cicatri": 4575,
      "enzymes": 4576,
      "anticoagulants": 4577,
      "bathtub": 4578,
      "myocardial": 4579,
      "onephritis": 4580,
      "language": 4581,
      "changes": 4582,
      "cicatricial": 4583,
      "071": 4584,
      "072": 4585,
      "265": 4586,
      "312A": 4587,
      "312D": 4588,
      "312S": 4589,
      "492": 4590,
      "409": 4591,
      "649": 4592,
      "812A": 4593,
      "812D": 4594,
      "812S": 4595,
      "G43": 4596,
      "H65": 4597,
      "H54": 4598,
      "I87": 4599,
      "Q72": 4600,
      "dden": 4601,
      "thes": 4602,
      "resist": 4603,
      "counsel": 4604,
      "stent": 4605,
      "step": 4606,
      "uled": 4607,
      "fort": 4608,
      "ational": 4609,
      "tex": 4610,
      "XX0": 4611,
      "XX1": 4612,
      "mental": 4613,
      "222A": 4614,
      "222D": 4615,
      "222S": 4616,
      "399": 4617,
      "rhea": 4618,
      "cussion": 4619,
      "hold": 4620,
      "monoarthritis": 4621,
      "pyra": 4622,
      "progressive": 4623,
      "household": 4624,
      "mycobacterial": 4625,
      "institutional": 4626,
      "171": 4627,
      "193": 4628,
      "652": 4629,
      "F11": 4630,
      "G47": 4631,
      "asia": 4632,
      "basal": 4633,
      "heli": 4634,
      "len": 4635,
      "ruled": 4636,
      "thy": 4637,
      "anten": 4638,
      "fied": 4639,
      "diar": 4640,
      "qual": 4641,
      "elmin": 4642,
      "string": 4643,
      "demic": 4644,
      "concussion": 4645,
      "verti": 4646,
      "net": 4647,
      "mineral": 4648,
      "XX2": 4649,
      "XX3": 4650,
      "XX4": 4651,
      "XX5": 4652,
      "XX9": 4653,
      "329": 4654,
      "ome": 4655,
      "genetic": 4656,
      "223": 4657,
      "common": 4658,
      "earing": 4659,
      "81XA": 4660,
      "81XD": 4661,
      "81XS": 4662,
      "ways": 4663,
      "myring": 4664,
      "20XA": 4665,
      "20XD": 4666,
      "20XS": 4667,
      "epith": 4668,
      "stations": 4669,
      "functional": 4670,
      "generator": 4671,
      "rhythmic": 4672,
      "divertic": 4673,
      "identified": 4674,
      "counseling": 4675,
      "antenatal": 4676,
      "109A": 4677,
      "109D": 4678,
      "109S": 4679,
      "3part": 4680,
      "4part": 4681,
      "891": 4682,
      "M50": 4683,
      "O24": 4684,
      "S29": 4685,
      "S26": 4686,
      "T75": 4687,
      "W59": 4688,
      "XP": 4689,
      "aph": 4690,
      "bearing": 4691,
      "cine": 4692,
      "grain": 4693,
      "l1": 4694,
      "l2": 4695,
      "l3": 4696,
      "l4": 4697,
      "mani": 4698,
      "ning": 4699,
      "t1": 4700,
      "indetermin": 4701,
      "ecraft": 4702,
      "ritic": 4703,
      "ultr": 4704,
      "noninstitutional": 4705,
      "lipi": 4706,
      "lizard": 4707,
      "perine": 4708,
      "types": 4709,
      "mini": 4710,
      "tral": 4711,
      "cortex": 4712,
      "admission": 4713,
      "cerated": 4714,
      "bursal": 4715,
      "ostosis": 4716,
      "antiinfecti": 4717,
      "519": 4718,
      "penic": 4719,
      "fires": 4720,
      "hyperlipi": 4721,
      "bennet": 4722,
      "explosions": 4723,
      "poweredglider": 4724,
      "031A": 4725,
      "031D": 4726,
      "031S": 4727,
      "131A": 4728,
      "131D": 4729,
      "131S": 4730,
      "vaccine": 4731,
      "bullet": 4732,
      "myeloid": 4733,
      "nephro": 4734,
      "microlight": 4735,
      "adenitis": 4736,
      "copter": 4737,
      "hangglider": 4738,
      "hypoglycemic": 4739,
      "conflagration": 4740,
      "blepharitis": 4741,
      "balance": 4742,
      "incarcerated": 4743,
      "spacecraft": 4744,
      "helicopter": 4745,
      "manife": 4746,
      "indeterminate": 4747,
      "ultralight": 4748,
      "antiinfectives": 4749,
      "bennetts": 4750,
      "Z87": 4751,
      "sch": 4752,
      "tin": 4753,
      "tac": 4754,
      "uteri": 4755,
      "anem": 4756,
      "sema": 4757,
      "noninfective": 4758,
      "nonhodgkin": 4759,
      "foramin": 4760,
      "mine": 4761,
      "olaryng": 4762,
      "caries": 4763,
      "323": 4764,
      "otorhin": 4765,
      "mouth": 4766,
      "lymphomas": 4767,
      "8089": 4768,
      "temp": 4769,
      "sternum": 4770,
      "lymphocyte": 4771,
      "gluco": 4772,
      "nkcell": 4773,
      "minimal": 4774,
      "foramina": 4775,
      "olaryngological": 4776,
      "otorhinolaryngological": 4777,
      "030": 4778,
      "4C": 4779,
      "4E": 4780,
      "4F": 4781,
      "4H": 4782,
      "4J": 4783,
      "4M": 4784,
      "4N": 4785,
      "4Q": 4786,
      "4R": 4787,
      "511A": 4788,
      "721": 4789,
      "C85": 4790,
      "G57": 4791,
      "H70": 4792,
      "K80": 4793,
      "M94": 4794,
      "N99": 4795,
      "O33": 4796,
      "Q71": 4797,
      "aura": 4798,
      "dors": 4799,
      "flat": 4800,
      "glas": 4801,
      "gmato": 4802,
      "licle": 4803,
      "port": 4804,
      "tnkcell": 4805,
      "action": 4806,
      "acous": 4807,
      "thia": 4808,
      "anaplastic": 4809,
      "iculitis": 4810,
      "sigm": 4811,
      "subcapsular": 4812,
      "ulonephritis": 4813,
      "nonfollicular": 4814,
      "nonexudative": 4815,
      "hema": 4816,
      "lowtension": 4817,
      "admin": 4818,
      "029A": 4819,
      "029D": 4820,
      "029S": 4821,
      "calor": 4822,
      "lyopia": 4823,
      "antimycobacterial": 4824,
      "213": 4825,
      "follicle": 4826,
      "insertion": 4827,
      "rhegmato": 4828,
      "monocular": 4829,
      "mononeur": 4830,
      "19XA": 4831,
      "19XD": 4832,
      "19XS": 4833,
      "postthrombotic": 4834,
      "puls": 4835,
      "monochorionic": 4836,
      "gow": 4837,
      "amblyopia": 4838,
      "geners": 4839,
      "staphyloma": 4840,
      "nephritic": 4841,
      "immunoglobulin": 4842,
      "mastoidectomy": 4843,
      "blepharo": 4844,
      "enzyme": 4845,
      "periodontitis": 4846,
      "otosclerosis": 4847,
      "pseudoexfoliation": 4848,
      "glomerulonephritis": 4849,
      "pupillary": 4850,
      "pancreatitis": 4851,
      "myringitis": 4852,
      "glasgow": 4853,
      "acoustic": 4854,
      "sigmoid": 4855,
      "rhegmatogenous": 4856,
      "091A": 4857,
      "091D": 4858,
      "091S": 4859,
      "190": 4860,
      "191A": 4861,
      "191D": 4862,
      "191S": 4863,
      "293": 4864,
      "279": 4865,
      "511D": 4866,
      "511S": 4867,
      "F16": 4868,
      "G44": 4869,
      "I97": 4870,
      "S38": 4871,
      "V81": 4872,
      "V94": 4873,
      "V97": 4874,
      "Z96": 4875,
      "dence": 4876,
      "ety": 4877,
      "swelling": 4878,
      "ices": 4879,
      "ustion": 4880,
      "tool": 4881,
      "cies": 4882,
      "handgun": 4883,
      "athle": 4884,
      "321A": 4885,
      "321D": 4886,
      "321S": 4887,
      "osa": 4888,
      "obst": 4889,
      "contamin": 4890,
      "appen": 4891,
      "T88": 4892,
      "ropathy": 4893,
      "omycosis": 4894,
      "7079": 4895,
      "uric": 4896,
      "entero": 4897,
      "varus": 4898,
      "metics": 4899,
      "flames": 4900,
      "201A": 4901,
      "201D": 4902,
      "201S": 4903,
      "antibiotic": 4904,
      "nephropathy": 4905,
      "vitamins": 4906,
      "residence": 4907,
      "analgesic": 4908,
      "exhaustion": 4909,
      "communicating": 4910,
      "salpingitis": 4911,
      "vertigo": 4912,
      "manifestations": 4913,
      "appendi": 4914,
      "181": 4915,
      "411A": 4916,
      "411D": 4917,
      "411S": 4918,
      "892": 4919,
      "E71": 4920,
      "F18": 4921,
      "H20": 4922,
      "Z3A": 4923,
      "dosis": 4924,
      "led": 4925,
      "lup": 4926,
      "nsa": 4927,
      "scia": 4928,
      "tone": 4929,
      "yg": 4930,
      "zyg": 4931,
      "inatal": 4932,
      "enthes": 4933,
      "ona": 4934,
      "suc": 4935,
      "ely": 4936,
      "storm": 4937,
      "rap": 4938,
      "nonster": 4939,
      "perinatal": 4940,
      "phosp": 4941,
      "malposition": 4942,
      "prot": 4943,
      "prolong": 4944,
      "irin": 4945,
      "32XA": 4946,
      "32XD": 4947,
      "32XS": 4948,
      "pathways": 4949,
      "ostatic": 4950,
      "ageal": 4951,
      "epis": 4952,
      "219A": 4953,
      "219D": 4954,
      "219S": 4955,
      "40A": 4956,
      "40D": 4957,
      "aspirin": 4958,
      "immune": 4959,
      "serum": 4960,
      "stump": 4961,
      "032A": 4962,
      "032D": 4963,
      "032S": 4964,
      "esophageal": 4965,
      "anxiety": 4966,
      "inhaled": 4967,
      "methyl": 4968,
      "immunodeficiency": 4969,
      "metals": 4970,
      "breath": 4971,
      "oxidase": 4972,
      "elminth": 4973,
      "obstet": 4974,
      "nsaid": 4975,
      "sciatic": 4976,
      "nonsteroidal": 4977,
      "prolonged": 4978,
      "009A": 4979,
      "009D": 4980,
      "009S": 4981,
      "172": 4982,
      "533": 4983,
      "512A": 4984,
      "659": 4985,
      "6069": 4986,
      "H52": 4987,
      "fona": 4988,
      "ket": 4989,
      "othorax": 4990,
      "osus": 4991,
      "ub": 4992,
      "inline": 4993,
      "lack": 4994,
      "loop": 4995,
      "lid": 4996,
      "lipo": 4997,
      "extran": 4998,
      "antacids": 4999,
      "collapse": 5000,
      "125": 5001,
      "cyclic": 5002,
      "429": 5003,
      "oster": 5004,
      "319A": 5005,
      "319D": 5006,
      "319S": 5007,
      "odal": 5008,
      "antiviral": 5009,
      "plet": 5010,
      "810": 5011,
      "period": 5012,
      "ilitic": 5013,
      "having": 5014,
      "smallpox": 5015,
      "sulfona": 5016,
      "132A": 5017,
      "132D": 5018,
      "132S": 5019,
      "factory": 5020,
      "syphilitic": 5021,
      "gonad": 5022,
      "ospor": 5023,
      "achie": 5024,
      "illins": 5025,
      "hydanto": 5026,
      "anticoagulant": 5027,
      "crisis": 5028,
      "erythematosus": 5029,
      "propionic": 5030,
      "resistance": 5031,
      "penicillins": 5032,
      "lupus": 5033,
      "succin": 5034,
      "breathing": 5035,
      "obstetric": 5036,
      "extranodal": 5037,
      "sulfonamides": 5038,
      "hydantoin": 5039,
      "092A": 5040,
      "092D": 5041,
      "092S": 5042,
      "202A": 5043,
      "202D": 5044,
      "202S": 5045,
      "2receptor": 5046,
      "4amin": 5047,
      "512D": 5048,
      "512S": 5049,
      "H95": 5050,
      "H66": 5051,
      "H74": 5052,
      "H73": 5053,
      "M97": 5054,
      "O10": 5055,
      "O23": 5056,
      "S03": 5057,
      "T15": 5058,
      "V02": 5059,
      "V01": 5060,
      "V06": 5061,
      "V05": 5062,
      "V04": 5063,
      "V03": 5064,
      "astring": 5065,
      "betal": 5066,
      "c8": 5067,
      "cents": 5068,
      "dined": 5069,
      "eine": 5070,
      "famp": 5071,
      "gement": 5072,
      "h2receptor": 5073,
      "imin": 5074,
      "icol": 5075,
      "imides": 5076,
      "imetics": 5077,
      "lben": 5078,
      "mother": 5079,
      "mmal": 5080,
      "nur": 5081,
      "nasal": 5082,
      "othi": 5083,
      "ohumeral": 5084,
      "ogues": 5085,
      "ocorticoids": 5086,
      "pac": 5087,
      "rheal": 5088,
      "rally": 5089,
      "xene": 5090,
      "ylat": 5091,
      "zol": 5092,
      "zine": 5093,
      "ersion": 5094,
      "inations": 5095,
      "inics": 5096,
      "inconver": 5097,
      "enol": 5098,
      "envir": 5099,
      "enicol": 5100,
      "relapse": 5101,
      "relax": 5102,
      "lear": 5103,
      "lefort": 5104,
      "coli": 5105,
      "rifamp": 5106,
      "diffic": 5107,
      "digest": 5108,
      "sutures": 5109,
      "elating": 5110,
      "icins": 5111,
      "icylat": 5112,
      "simil": 5113,
      "ramus": 5114,
      "subcondylar": 5115,
      "loos": 5116,
      "tocic": 5117,
      "lients": 5118,
      "lides": 5119,
      "opium": 5120,
      "attemp": 5121,
      "hetamin": 5122,
      "demul": 5123,
      "demen": 5124,
      "emol": 5125,
      "emetic": 5126,
      "phins": 5127,
      "phrine": 5128,
      "otes": 5129,
      "otens": 5130,
      "bia": 5131,
      "bitura": 5132,
      "derness": 5133,
      "congeners": 5134,
      "idate": 5135,
      "mammal": 5136,
      "chlear": 5137,
      "chelating": 5138,
      "ectants": 5139,
      "iones": 5140,
      "iling": 5141,
      "ically": 5142,
      "progest": 5143,
      "caff": 5144,
      "inephrine": 5145,
      "muscar": 5146,
      "their": 5147,
      "muscletone": 5148,
      "adone": 5149,
      "529": 5150,
      "tibiofibular": 5151,
      "radioul": 5152,
      "preeclampsia": 5153,
      "ceiling": 5154,
      "423": 5155,
      "clines": 5156,
      "omimetics": 5157,
      "osmo": 5158,
      "osclerotic": 5159,
      "saline": 5160,
      "salicylat": 5161,
      "obtura": 5162,
      "migrain": 5163,
      "tussives": 5164,
      "lytics": 5165,
      "esterase": 5166,
      "strike": 5167,
      "ials": 5168,
      "413": 5169,
      "antirheuma": 5170,
      "antiepi": 5171,
      "antidiabetic": 5172,
      "antidys": 5173,
      "antiarteri": 5174,
      "antigastric": 5175,
      "antivaricose": 5176,
      "antithyroid": 5177,
      "antirheumatic": 5178,
      "antiallergic": 5179,
      "antihypertensive": 5180,
      "antimalar": 5181,
      "antithrombotic": 5182,
      "antiasthma": 5183,
      "antiestrogens": 5184,
      "antiandrogens": 5185,
      "antiprotozoal": 5186,
      "antiparkinsonism": 5187,
      "antipruri": 5188,
      "antidiar": 5189,
      "anticommon": 5190,
      "antihyperlipi": 5191,
      "antigonad": 5192,
      "antiemetic": 5193,
      "antimuscar": 5194,
      "antitussives": 5195,
      "iazine": 5196,
      "eptics": 5197,
      "epines": 5198,
      "midcarpal": 5199,
      "hemostatic": 5200,
      "transmetacarpal": 5201,
      "thiothi": 5202,
      "norep": 5203,
      "499": 5204,
      "actam": 5205,
      "ophenol": 5206,
      "appeti": 5207,
      "systemically": 5208,
      "5059": 5209,
      "mobility": 5210,
      "amphetamin": 5211,
      "intravenous": 5212,
      "intrapelvic": 5213,
      "waterbalance": 5214,
      "channel": 5215,
      "expector": 5216,
      "suppressive": 5217,
      "tricyclic": 5218,
      "thrombolytic": 5219,
      "quadrup": 5220,
      "matous": 5221,
      "histamine": 5222,
      "centrally": 5223,
      "ogens": 5224,
      "immersion": 5225,
      "hypophyseal": 5226,
      "phenone": 5227,
      "phenoth": 5228,
      "phenidate": 5229,
      "cardiacstimulant": 5230,
      "butyro": 5231,
      "tingenzyme": 5232,
      "carbonican": 5233,
      "monoamine": 5234,
      "opioids": 5235,
      "ophthalmological": 5236,
      "severely": 5237,
      "mesh": 5238,
      "valgus": 5239,
      "ostilben": 5240,
      "azoli": 5241,
      "broken": 5242,
      "ergicneuron": 5243,
      "oxazoli": 5244,
      "adrenergicneuron": 5245,
      "141A": 5246,
      "141D": 5247,
      "141S": 5248,
      "keratoplas": 5249,
      "keratolytics": 5250,
      "301A": 5251,
      "301D": 5252,
      "301S": 5253,
      "highceiling": 5254,
      "analogues": 5255,
      "analeptics": 5256,
      "coagulants": 5257,
      "combinations": 5258,
      "hydrase": 5259,
      "anabolic": 5260,
      "chloramph": 5261,
      "electrolytic": 5262,
      "methadone": 5263,
      "otrophins": 5264,
      "encephalopathy": 5265,
      "immunosuppressive": 5266,
      "topically": 5267,
      "antidotes": 5268,
      "protozoa": 5269,
      "aminoglycosides": 5270,
      "calciumchannel": 5271,
      "ganglionic": 5272,
      "angiotens": 5273,
      "barbitura": 5274,
      "anthelminth": 5275,
      "cephalospor": 5276,
      "oxytocic": 5277,
      "analgesics": 5278,
      "spasmolytics": 5279,
      "diazides": 5280,
      "diazepines": 5281,
      "antipyretic": 5282,
      "antipyretics": 5283,
      "benzothia": 5284,
      "benzodiazepines": 5285,
      "tetracyclic": 5286,
      "tetracyclines": 5287,
      "anticholinergics": 5288,
      "anticholinesterase": 5289,
      "parasympatholytics": 5290,
      "parasympathomimetics": 5291,
      "chalasis": 5292,
      "applied": 5293,
      "emetics": 5294,
      "macrolides": 5295,
      "adenohypophyseal": 5296,
      "pyrazol": 5297,
      "mineralocorticoids": 5298,
      "glucocorticoids": 5299,
      "minimally": 5300,
      "dorsopathies": 5301,
      "caloric": 5302,
      "zygomatic": 5303,
      "protectants": 5304,
      "methylphenidate": 5305,
      "oxidaseinhibitor": 5306,
      "achieved": 5307,
      "succinimides": 5308,
      "4aminophenol": 5309,
      "astringents": 5310,
      "betalactam": 5311,
      "dinediones": 5312,
      "iminostilben": 5313,
      "inconvertingenzyme": 5314,
      "environment": 5315,
      "relaxants": 5316,
      "rifampicins": 5317,
      "digestants": 5318,
      "similar": 5319,
      "loosening": 5320,
      "demulcents": 5321,
      "dementia": 5322,
      "emollients": 5323,
      "mammals": 5324,
      "progestogens": 5325,
      "caffeine": 5326,
      "radioulnar": 5327,
      "osmotic": 5328,
      "salicylates": 5329,
      "obturator": 5330,
      "migrainosus": 5331,
      "antirheumatics": 5332,
      "antiepileptics": 5333,
      "antidysrhythmic": 5334,
      "antiarteriosclerotic": 5335,
      "antigastricsecretion": 5336,
      "antimalarials": 5337,
      "antiasthmatics": 5338,
      "antipruritics": 5339,
      "antidiarrheal": 5340,
      "anticommoncold": 5341,
      "antihyperlipidemic": 5342,
      "antigonadotrophins": 5343,
      "antimuscarinics": 5344,
      "thiothixene": 5345,
      "norepinephrine": 5346,
      "appetite": 5347,
      "amphetamines": 5348,
      "expectorants": 5349,
      "centrallyacting": 5350,
      "phenothiazine": 5351,
      "butyrophenone": 5352,
      "carbonicanhydrase": 5353,
      "monoamineoxidaseinhibitor": 5354,
      "oxazolidinediones": 5355,
      "adrenergicneuronblocking": 5356,
      "keratoplastics": 5357,
      "chloramphenicol": 5358,
      "angiotensinconvertingenzyme": 5359,
      "barbiturates": 5360,
      "anthelminthics": 5361,
      "cephalosporins": 5362,
      "benzothiadiazides": 5363,
      "pyrazolone": 5364,
      "iminostilbenes": 5365,
      "182": 5366,
      "130": 5367,
      "192A": 5368,
      "192D": 5369,
      "192S": 5370,
      "291A": 5371,
      "291D": 5372,
      "291S": 5373,
      "300": 5374,
      "500": 5375,
      "722": 5376,
      "F12": 5377,
      "M92": 5378,
      "N83": 5379,
      "ption": 5380,
      "usitis": 5381,
      "root": 5382,
      "percep": 5383,
      "nevi": 5384,
      "icles": 5385,
      "parent": 5386,
      "025": 5387,
      "mentary": 5388,
      "322A": 5389,
      "322D": 5390,
      "322S": 5391,
      "31XA": 5392,
      "31XD": 5393,
      "31XS": 5394,
      "arthro": 5395,
      "333": 5396,
      "299": 5397,
      "29XA": 5398,
      "29XD": 5399,
      "29XS": 5400,
      "triplet": 5401,
      "audi": 5402,
      "solid": 5403,
      "hydrocephal": 5404,
      "atrophic": 5405,
      "descending": 5406,
      "smear": 5407,
      "melanocytic": 5408,
      "aneurysm": 5409,
      "disturbance": 5410,
      "scars": 5411,
      "391A": 5412,
      "391D": 5413,
      "391S": 5414,
      "412A": 5415,
      "412D": 5416,
      "412S": 5417,
      "591": 5418,
      "609": 5419,
      "630": 5420,
      "M76": 5421,
      "Z91": 5422,
      "aer": 5423,
      "clo": 5424,
      "im": 5425,
      "ian": 5426,
      "ls": 5427,
      "nas": 5428,
      "pum": 5429,
      "passa": 5430,
      "push": 5431,
      "vents": 5432,
      "incontin": 5433,
      "therapy": 5434,
      "stoma": 5435,
      "ray": 5436,
      "esotropia": 5437,
      "atre": 5438,
      "ascending": 5439,
      "cortical": 5440,
      "126": 5441,
      "cele": 5442,
      "ground": 5443,
      "manic": 5444,
      "unequal": 5445,
      "horse": 5446,
      "hypoton": 5447,
      "chewing": 5448,
      "palsy": 5449,
      "bullous": 5450,
      "mediast": 5451,
      "inhalation": 5452,
      "deposits": 5453,
      "ptosis": 5454,
      "gingiv": 5455,
      "cytological": 5456,
      "nutritional": 5457,
      "cigarettes": 5458,
      "quadruplet": 5459,
      "pump": 5460,
      "passage": 5461,
      "hypotony": 5462,
      "302A": 5463,
      "302D": 5464,
      "302S": 5465,
      "620": 5466,
      "8X2": 5467,
      "A50": 5468,
      "L98": 5469,
      "M20": 5470,
      "T74": 5471,
      "W22": 5472,
      "Y07": 5473,
      "ause": 5474,
      "band": 5475,
      "oil": 5476,
      "obia": 5477,
      "tile": 5478,
      "seiz": 5479,
      "copic": 5480,
      "congestive": 5481,
      "ectasia": 5482,
      "026": 5483,
      "421A": 5484,
      "421D": 5485,
      "421S": 5486,
      "oscopic": 5487,
      "ologic": 5488,
      "433": 5489,
      "ophor": 5490,
      "4049": 5491,
      "819A": 5492,
      "819D": 5493,
      "819S": 5494,
      "ures": 5495,
      "371": 5496,
      "372": 5497,
      "cerebellar": 5498,
      "93XA": 5499,
      "93XD": 5500,
      "93XS": 5501,
      "liances": 5502,
      "servic": 5503,
      "delirium": 5504,
      "studies": 5505,
      "ossicles": 5506,
      "ophthalmoplegia": 5507,
      "appliances": 5508,
      "neuritis": 5509,
      "ocystitis": 5510,
      "turia": 5511,
      "persisting": 5512,
      "results": 5513,
      "dacryocystitis": 5514,
      "tonsil": 5515,
      "chisis": 5516,
      "episcler": 5517,
      "seizures": 5518,
      "282": 5519,
      "281": 5520,
      "250": 5521,
      "292A": 5522,
      "292D": 5523,
      "292S": 5524,
      "592": 5525,
      "602": 5526,
      "661": 5527,
      "662": 5528,
      "A18": 5529,
      "H81": 5530,
      "O22": 5531,
      "hock": 5532,
      "ima": 5533,
      "oadenitis": 5534,
      "tap": 5535,
      "ylos": 5536,
      "erup": 5537,
      "onucle": 5538,
      "unable": 5539,
      "unting": 5540,
      "sper": 5541,
      "ectile": 5542,
      "ora": 5543,
      "sudden": 5544,
      "stra": 5545,
      "stol": 5546,
      "lacrim": 5547,
      "losis": 5548,
      "nonsuppurative": 5549,
      "limit": 5550,
      "ophi": 5551,
      "tenderness": 5552,
      "exotropia": 5553,
      "ische": 5554,
      "legs": 5555,
      "82XA": 5556,
      "82XD": 5557,
      "82XS": 5558,
      "sym": 5559,
      "oschisis": 5560,
      "ankylos": 5561,
      "ology": 5562,
      "vesti": 5563,
      "determine": 5564,
      "513": 5565,
      "40S": 5566,
      "619": 5567,
      "limbs": 5568,
      "mononucle": 5569,
      "regions": 5570,
      "ality": 5571,
      "postmastoidectomy": 5572,
      "anesthetic": 5573,
      "8X1": 5574,
      "monoamniotic": 5575,
      "hallucinations": 5576,
      "041A": 5577,
      "041D": 5578,
      "041S": 5579,
      "pigmentations": 5580,
      "staphylococcus": 5581,
      "pann": 5582,
      "gravida": 5583,
      "trigger": 5584,
      "pinna": 5585,
      "hematuria": 5586,
      "atresia": 5587,
      "hockey": 5588,
      "imaging": 5589,
      "stolic": 5590,
      "ischemia": 5591,
      "ankylosing": 5592,
      "mononucleosis": 5593,
      "502": 5594,
      "633": 5595,
      "650": 5596,
      "8G": 5597,
      "8K": 5598,
      "843": 5599,
      "A54": 5600,
      "I80": 5601,
      "J95": 5602,
      "M40": 5603,
      "M54": 5604,
      "M96": 5605,
      "R87": 5606,
      "cter": 5607,
      "dry": 5608,
      "hunting": 5609,
      "je": 5610,
      "mosis": 5611,
      "ole": 5612,
      "xia": 5613,
      "zing": 5614,
      "erectile": 5615,
      "ential": 5616,
      "replac": 5617,
      "sphin": 5618,
      "tual": 5619,
      "tula": 5620,
      "toma": 5621,
      "phra": 5622,
      "armed": 5623,
      "lamy": 5624,
      "made": 5625,
      "chen": 5626,
      "chlamy": 5627,
      "endoscopic": 5628,
      "521A": 5629,
      "521D": 5630,
      "521S": 5631,
      "cystitis": 5632,
      "313": 5633,
      "229A": 5634,
      "229D": 5635,
      "229S": 5636,
      "lymphoid": 5637,
      "istra": 5638,
      "ipment": 5639,
      "neurosyphilis": 5640,
      "142A": 5641,
      "142D": 5642,
      "142S": 5643,
      "senile": 5644,
      "diaphra": 5645,
      "cholin": 5646,
      "kitchen": 5647,
      "equipment": 5648,
      "epitheli": 5649,
      "administra": 5650,
      "packing": 5651,
      "arthropo": 5652,
      "sphincter": 5653,
      "150": 5654,
      "290": 5655,
      "209A": 5656,
      "209D": 5657,
      "209S": 5658,
      "392A": 5659,
      "392D": 5660,
      "392S": 5661,
      "509": 5662,
      "624": 5663,
      "731": 5664,
      "A52": 5665,
      "C92": 5666,
      "H43": 5667,
      "H25": 5668,
      "M75": 5669,
      "O9A": 5670,
      "O88": 5671,
      "S08": 5672,
      "T67": 5673,
      "T76": 5674,
      "V82": 5675,
      "V87": 5676,
      "V88": 5677,
      "W33": 5678,
      "W34": 5679,
      "W94": 5680,
      "X08": 5681,
      "Z68": 5682,
      "amy": 5683,
      "ced": 5684,
      "cleft": 5685,
      "centi": 5686,
      "ibi": 5687,
      "kni": 5688,
      "l5": 5689,
      "yst": 5690,
      "unarmed": 5691,
      "splen": 5692,
      "riger": 5693,
      "dial": 5694,
      "stry": 5695,
      "stock": 5696,
      "ulent": 5697,
      "toad": 5698,
      "nonabo": 5699,
      "shot": 5700,
      "bifur": 5701,
      "exertion": 5702,
      "oline": 5703,
      "toxi": 5704,
      "toxins": 5705,
      "necro": 5706,
      "lysis": 5707,
      "919A": 5708,
      "919D": 5709,
      "919S": 5710,
      "torsion": 5711,
      "surround": 5712,
      "562": 5713,
      "airgun": 5714,
      "manmade": 5715,
      "frog": 5716,
      "horus": 5717,
      "94XA": 5718,
      "94XD": 5719,
      "94XS": 5720,
      "rolling": 5721,
      "domestic": 5722,
      "sulfur": 5723,
      "gasoline": 5724,
      "sinusitis": 5725,
      "purulent": 5726,
      "t7t10": 5727,
      "steam": 5728,
      "cended": 5729,
      "dissection": 5730,
      "copper": 5731,
      "shellfish": 5732,
      "periodontal": 5733,
      "amphibi": 5734,
      "refriger": 5735,
      "t2t6": 5736,
      "nephrostomy": 5737,
      "enthesopathy": 5738,
      "rapid": 5739,
      "phosphorus": 5740,
      "lipomatous": 5741,
      "attempted": 5742,
      "strabis": 5743,
      "limited": 5744,
      "symphysis": 5745,
      "replacement": 5746,
      "cholinergics": 5747,
      "knife": 5748,
      "shotgun": 5749,
      "bifurcation": 5750,
      "surrounding": 5751,
      "refrigerator": 5752,
      "0G": 5753,
      "0K": 5754,
      "309A": 5755,
      "309D": 5756,
      "309S": 5757,
      "5C": 5758,
      "5E": 5759,
      "5F": 5760,
      "5H": 5761,
      "5J": 5762,
      "5M": 5763,
      "5N": 5764,
      "5Q": 5765,
      "5R": 5766,
      "869": 5767,
      "911A": 5768,
      "911D": 5769,
      "911S": 5770,
      "H49": 5771,
      "R10": 5772,
      "iat": 5773,
      "ented": 5774,
      "lie": 5775,
      "tention": 5776,
      "chair": 5777,
      "nea": 5778,
      "endo": 5779,
      "42XA": 5780,
      "42XD": 5781,
      "42XS": 5782,
      "422A": 5783,
      "422D": 5784,
      "422S": 5785,
      "agia": 5786,
      "partment": 5787,
      "stritis": 5788,
      "gastritis": 5789,
      "003": 5790,
      "forming": 5791,
      "mycosis": 5792,
      "199A": 5793,
      "199D": 5794,
      "199S": 5795,
      "candi": 5796,
      "enteritis": 5797,
      "8X1A": 5798,
      "8X1D": 5799,
      "8X1S": 5800,
      "pillar": 5801,
      "capsu": 5802,
      "behavioral": 5803,
      "factors": 5804,
      "thyrotoxi": 5805,
      "fluids": 5806,
      "because": 5807,
      "breech": 5808,
      "delusion": 5809,
      "contaminants": 5810,
      "appendix": 5811,
      "auditory": 5812,
      "chlamydial": 5813,
      "iatric": 5814,
      "thyrotoxicosis": 5815,
      "0B": 5816,
      "1X2A": 5817,
      "1X2D": 5818,
      "1X2S": 5819,
      "1X3A": 5820,
      "1X3D": 5821,
      "1X3S": 5822,
      "8B": 5823,
      "879": 5824,
      "8X2A": 5825,
      "8X2D": 5826,
      "8X2S": 5827,
      "912A": 5828,
      "912D": 5829,
      "912S": 5830,
      "F31": 5831,
      "G56": 5832,
      "H00": 5833,
      "H68": 5834,
      "K50": 5835,
      "O40": 5836,
      "O03": 5837,
      "fused": 5838,
      "gal": 5839,
      "outer": 5840,
      "tation": 5841,
      "ino": 5842,
      "rivation": 5843,
      "entangle": 5844,
      "citis": 5845,
      "deol": 5846,
      "deple": 5847,
      "biliary": 5848,
      "idosis": 5849,
      "prophylactic": 5850,
      "dual": 5851,
      "corpus": 5852,
      "522A": 5853,
      "522D": 5854,
      "522S": 5855,
      "ternum": 5856,
      "329A": 5857,
      "329D": 5858,
      "329S": 5859,
      "saliv": 5860,
      "procrea": 5861,
      "41XA": 5862,
      "41XD": 5863,
      "41XS": 5864,
      "099A": 5865,
      "099D": 5866,
      "099S": 5867,
      "439": 5868,
      "retrac": 5869,
      "40XA": 5870,
      "40XD": 5871,
      "40XS": 5872,
      "30XA": 5873,
      "30XD": 5874,
      "30XS": 5875,
      "ski": 5876,
      "629": 5877,
      "matosis": 5878,
      "occurring": 5879,
      "hordeol": 5880,
      "deprivation": 5881,
      "8X9": 5882,
      "brow": 5883,
      "042A": 5884,
      "042D": 5885,
      "042S": 5886,
      "1X1A": 5887,
      "1X1D": 5888,
      "1X1S": 5889,
      "401A": 5890,
      "401D": 5891,
      "401S": 5892,
      "lecell": 5893,
      "sicklecell": 5894,
      "services": 5895,
      "arthropod": 5896,
      "delusions": 5897,
      "entanglement": 5898,
      "salivary": 5899,
      "procreative": 5900,
      "hordeolum": 5901,
      "1X4A": 5902,
      "1X4D": 5903,
      "1X4S": 5904,
      "230": 5905,
      "206": 5906,
      "402A": 5907,
      "402D": 5908,
      "402S": 5909,
      "491A": 5910,
      "491D": 5911,
      "491S": 5912,
      "671": 5913,
      "672": 5914,
      "892A": 5915,
      "892D": 5916,
      "892S": 5917,
      "912": 5918,
      "C91": 5919,
      "C69": 5920,
      "K55": 5921,
      "P07": 5922,
      "T69": 5923,
      "V52": 5924,
      "V42": 5925,
      "V32": 5926,
      "V31": 5927,
      "V41": 5928,
      "V36": 5929,
      "V09": 5930,
      "V51": 5931,
      "V35": 5932,
      "V46": 5933,
      "V40": 5934,
      "V61": 5935,
      "V33": 5936,
      "V50": 5937,
      "V44": 5938,
      "V30": 5939,
      "V45": 5940,
      "V37": 5941,
      "V56": 5942,
      "V71": 5943,
      "V63": 5944,
      "V34": 5945,
      "V62": 5946,
      "V53": 5947,
      "V60": 5948,
      "V47": 5949,
      "V70": 5950,
      "V72": 5951,
      "V65": 5952,
      "V38": 5953,
      "V48": 5954,
      "V83": 5955,
      "V55": 5956,
      "V54": 5957,
      "V66": 5958,
      "V57": 5959,
      "V67": 5960,
      "V85": 5961,
      "V84": 5962,
      "V74": 5963,
      "V75": 5964,
      "V64": 5965,
      "V76": 5966,
      "V58": 5967,
      "V73": 5968,
      "V78": 5969,
      "V77": 5970,
      "V68": 5971,
      "W31": 5972,
      "XC": 5973,
      "XE": 5974,
      "XF": 5975,
      "XH": 5976,
      "XJ": 5977,
      "XM": 5978,
      "XN": 5979,
      "XQ": 5980,
      "XR": 5981,
      "X37": 5982,
      "Z86": 5983,
      "earth": 5984,
      "flac": 5985,
      "oin": 5986,
      "wel": 5987,
      "zinc": 5988,
      "ones": 5989,
      "restric": 5990,
      "tizing": 5991,
      "orrhea": 5992,
      "sit": 5993,
      "stor": 5994,
      "ands": 5995,
      "row": 5996,
      "depressive": 5997,
      "bilities": 5998,
      "lay": 5999,
      "821A": 6000,
      "821D": 6001,
      "821S": 6002,
      "822A": 6003,
      "822D": 6004,
      "822S": 6005,
      "para": 6006,
      "cyan": 6007,
      "S77": 6008,
      "essential": 6009,
      "iting": 6010,
      "419A": 6011,
      "419D": 6012,
      "419S": 6013,
      "insomnia": 6014,
      "completed": 6015,
      "899": 6016,
      "03XA": 6017,
      "03XD": 6018,
      "03XS": 6019,
      "cocci": 6020,
      "choroid": 6021,
      "social": 6022,
      "alcoholic": 6023,
      "polyp": 6024,
      "ophthalmitis": 6025,
      "lordosis": 6026,
      "pyogenic": 6027,
      "plants": 6028,
      "crashing": 6029,
      "cytologic": 6030,
      "oculomotor": 6031,
      "hypoplasia": 6032,
      "opacity": 6033,
      "athletics": 6034,
      "diaphragm": 6035,
      "necrotizing": 6036,
      "flaccid": 6037,
      "079": 6038,
      "269": 6039,
      "625": 6040,
      "732": 6041,
      "R19": 6042,
      "Z52": 6043,
      "Z44": 6044,
      "Z13": 6045,
      "aun": 6046,
      "amer": 6047,
      "athetic": 6048,
      "hen": 6049,
      "jaun": 6050,
      "lical": 6051,
      "vo": 6052,
      "albin": 6053,
      "spot": 6054,
      "spring": 6055,
      "tim": 6056,
      "ecz": 6057,
      "rid": 6058,
      "rial": 6059,
      "didy": 6060,
      "dice": 6061,
      "stral": 6062,
      "lobe": 6063,
      "tosis": 6064,
      "attention": 6065,
      "eminal": 6066,
      "bilical": 6067,
      "dyes": 6068,
      "abduc": 6069,
      "116": 6070,
      "synec": 6071,
      "burkit": 6072,
      "M88": 6073,
      "transmission": 6074,
      "anese": 6075,
      "pleura": 6076,
      "399A": 6077,
      "399D": 6078,
      "399S": 6079,
      "lymphoblastic": 6080,
      "379": 6081,
      "trochlear": 6082,
      "wheelchair": 6083,
      "threat": 6084,
      "epididy": 6085,
      "club": 6086,
      "rens": 6087,
      "alimentary": 6088,
      "299A": 6089,
      "299D": 6090,
      "299S": 6091,
      "472": 6092,
      "pier": 6093,
      "austral": 6094,
      "fluori": 6095,
      "recto": 6096,
      "glycer": 6097,
      "sympathetic": 6098,
      "0X1A": 6099,
      "0X1D": 6100,
      "0X1S": 6101,
      "aminoacid": 6102,
      "institution": 6103,
      "play": 6104,
      "refrac": 6105,
      "trigeminal": 6106,
      "sarcoma": 6107,
      "hiae": 6108,
      "american": 6109,
      "jaundice": 6110,
      "albinism": 6111,
      "abducent": 6112,
      "synechiae": 6113,
      "burkitt": 6114,
      "fluoride": 6115,
      "050": 6116,
      "053": 6117,
      "0X2A": 6118,
      "0X2D": 6119,
      "0X2S": 6120,
      "0X3A": 6121,
      "0X3D": 6122,
      "0X3S": 6123,
      "2X2A": 6124,
      "2X2D": 6125,
      "2X2S": 6126,
      "2X3A": 6127,
      "2X3D": 6128,
      "2X3S": 6129,
      "534": 6130,
      "600": 6131,
      "844": 6132,
      "863": 6133,
      "891A": 6134,
      "891D": 6135,
      "891S": 6136,
      "E70": 6137,
      "E83": 6138,
      "K05": 6139,
      "Z30": 6140,
      "bery": 6141,
      "black": 6142,
      "cing": 6143,
      "gard": 6144,
      "hate": 6145,
      "hroom": 6146,
      "ias": 6147,
      "mang": 6148,
      "scor": 6149,
      "vom": 6150,
      "zoster": 6151,
      "unstage": 6152,
      "alis": 6153,
      "tici": 6154,
      "arsen": 6155,
      "ries": 6156,
      "rick": 6157,
      "rican": 6158,
      "elly": 6159,
      "lium": 6160,
      "umbilical": 6161,
      "emo": 6162,
      "phobia": 6163,
      "veill": 6164,
      "conus": 6165,
      "excess": 6166,
      "exophthalmos": 6167,
      "chn": 6168,
      "cher": 6169,
      "need": 6170,
      "olfactory": 6171,
      "mushroom": 6172,
      "113A": 6173,
      "113D": 6174,
      "113S": 6175,
      "123A": 6176,
      "123D": 6177,
      "123S": 6178,
      "persons": 6179,
      "victim": 6180,
      "harmful": 6181,
      "519A": 6182,
      "519D": 6183,
      "519S": 6184,
      "actin": 6185,
      "353": 6186,
      "ophosp": 6187,
      "penile": 6188,
      "echino": 6189,
      "pattern": 6190,
      "T87": 6191,
      "surveill": 6192,
      "89XA": 6193,
      "89XD": 6194,
      "89XS": 6195,
      "placed": 6196,
      "peritonitis": 6197,
      "keto": 6198,
      "procedures": 6199,
      "african": 6200,
      "grams": 6201,
      "hazard": 6202,
      "fluor": 6203,
      "recre": 6204,
      "reces": 6205,
      "guid": 6206,
      "glycol": 6207,
      "latex": 6208,
      "2X1A": 6209,
      "2X1D": 6210,
      "2X1S": 6211,
      "septic": 6212,
      "elev": 6213,
      "331A": 6214,
      "331D": 6215,
      "331S": 6216,
      "dential": 6217,
      "contraction": 6218,
      "139A": 6219,
      "139D": 6220,
      "139S": 6221,
      "501A": 6222,
      "501D": 6223,
      "501S": 6224,
      "residual": 6225,
      "residential": 6226,
      "chromium": 6227,
      "tongue": 6228,
      "hanging": 6229,
      "hypoglycemia": 6230,
      "chromosomal": 6231,
      "solvents": 6232,
      "episcleritis": 6233,
      "vestibular": 6234,
      "piercing": 6235,
      "australian": 6236,
      "beryl": 6237,
      "manganese": 6238,
      "unstageable": 6239,
      "arsenic": 6240,
      "surveillance": 6241,
      "0X4A": 6242,
      "0X4D": 6243,
      "0X4S": 6244,
      "169": 6245,
      "2pro": 6246,
      "2X4A": 6247,
      "2X4D": 6248,
      "2X4S": 6249,
      "3X2A": 6250,
      "3X2D": 6251,
      "3X2S": 6252,
      "3X3A": 6253,
      "3X3D": 6254,
      "3X3S": 6255,
      "409A": 6256,
      "409D": 6257,
      "409S": 6258,
      "530": 6259,
      "579": 6260,
      "591A": 6261,
      "591D": 6262,
      "591S": 6263,
      "691": 6264,
      "739": 6265,
      "853": 6266,
      "D31": 6267,
      "E72": 6268,
      "G83": 6269,
      "H72": 6270,
      "H83": 6271,
      "K91": 6272,
      "K57": 6273,
      "M01": 6274,
      "M51": 6275,
      "M63": 6276,
      "M07": 6277,
      "O46": 6278,
      "O44": 6279,
      "O45": 6280,
      "S19": 6281,
      "S28": 6282,
      "T70": 6283,
      "T55": 6284,
      "T64": 6285,
      "W01": 6286,
      "W53": 6287,
      "W17": 6288,
      "W58": 6289,
      "ateral": 6290,
      "cury": 6291,
      "dmi": 6292,
      "dag": 6293,
      "eval": 6294,
      "esity": 6295,
      "fun": 6296,
      "gma": 6297,
      "gator": 6298,
      "jelly": 6299,
      "own": 6300,
      "ogenital": 6301,
      "owar": 6302,
      "pion": 6303,
      "scom": 6304,
      "swor": 6305,
      "t3": 6306,
      "t4": 6307,
      "uation": 6308,
      "erglass": 6309,
      "ofem": 6310,
      "indirect": 6311,
      "endi": 6312,
      "enem": 6313,
      "enophthalmos": 6314,
      "unch": 6315,
      "unconventional": 6316,
      "thcharge": 6317,
      "thalli": 6318,
      "rever": 6319,
      "recl": 6320,
      "sps": 6321,
      "tigma": 6322,
      "antula": 6323,
      "leum": 6324,
      "oroc": 6325,
      "terpillar": 6326,
      "tuge": 6327,
      "seab": 6328,
      "cow": 6329,
      "codi": 6330,
      "cobra": 6331,
      "arbon": 6332,
      "dichlor": 6333,
      "disulfide": 6334,
      "counterpuls": 6335,
      "els": 6336,
      "widow": 6337,
      "sile": 6338,
      "andonment": 6339,
      "rower": 6340,
      "roden": 6341,
      "formal": 6342,
      "lia": 6343,
      "lide": 6344,
      "lipedes": 6345,
      "cigu": 6346,
      "heter": 6347,
      "dehy": 6348,
      "ased": 6349,
      "astigma": 6350,
      "perich": 6351,
      "phora": 6352,
      "shor": 6353,
      "laby": 6354,
      "latoxin": 6355,
      "launch": 6356,
      "contral": 6357,
      "expos": 6358,
      "nets": 6359,
      "abandonment": 6360,
      "cadmi": 6361,
      "caterpillar": 6362,
      "discar": 6363,
      "ineural": 6364,
      "coral": 6365,
      "correc": 6366,
      "adole": 6367,
      "823": 6368,
      "cyani": 6369,
      "ondritis": 6370,
      "429A": 6371,
      "429D": 6372,
      "429S": 6373,
      "ometh": 6374,
      "salts": 6375,
      "gency": 6376,
      "motorized": 6377,
      "obesity": 6378,
      "umbrel": 6379,
      "lyser": 6380,
      "esters": 6381,
      "fiberglass": 6382,
      "wasps": 6383,
      "363": 6384,
      "luoroc": 6385,
      "combus": 6386,
      "pedo": 6387,
      "T27": 6388,
      "herbic": 6389,
      "heroin": 6390,
      "reta": 6391,
      "aps": 6392,
      "818": 6393,
      "organophosp": 6394,
      "intraperitoneal": 6395,
      "monster": 6396,
      "regular": 6397,
      "torpedo": 6398,
      "mercury": 6399,
      "tlesnake": 6400,
      "569": 6401,
      "airbag": 6402,
      "epiphora": 6403,
      "sorineural": 6404,
      "pellets": 6405,
      "199": 6406,
      "alilike": 6407,
      "bees": 6408,
      "60XA": 6409,
      "60XD": 6410,
      "60XS": 6411,
      "exploding": 6412,
      "atera": 6413,
      "tribut": 6414,
      "trichlor": 6415,
      "north": 6416,
      "cellular": 6417,
      "manub": 6418,
      "manowar": 6419,
      "cystoid": 6420,
      "nonmotorized": 6421,
      "aflatoxin": 6422,
      "ethanol": 6423,
      "hornets": 6424,
      "depthcharge": 6425,
      "overexertion": 6426,
      "ipan": 6427,
      "portuge": 6428,
      "localization": 6429,
      "sound": 6430,
      "south": 6431,
      "soaps": 6432,
      "gicides": 6433,
      "missile": 6434,
      "alcohols": 6435,
      "pillow": 6436,
      "patients": 6437,
      "acidlike": 6438,
      "asian": 6439,
      "broid": 6440,
      "perforations": 6441,
      "desc": 6442,
      "oxides": 6443,
      "bulking": 6444,
      "bullets": 6445,
      "gide": 6446,
      "gila": 6447,
      "forces": 6448,
      "keratopathy": 6449,
      "keratoconus": 6450,
      "flameth": 6451,
      "tarantula": 6452,
      "taipan": 6453,
      "pesticides": 6454,
      "pestici": 6455,
      "artill": 6456,
      "elevation": 6457,
      "sensorineural": 6458,
      "3X1A": 6459,
      "3X1D": 6460,
      "3X1S": 6461,
      "linens": 6462,
      "millipedes": 6463,
      "chlorine": 6464,
      "039A": 6465,
      "039D": 6466,
      "039S": 6467,
      "crocodi": 6468,
      "mucoid": 6469,
      "151A": 6470,
      "151D": 6471,
      "151S": 6472,
      "methanol": 6473,
      "rinth": 6474,
      "operated": 6475,
      "nitric": 6476,
      "slipped": 6477,
      "panol": 6478,
      "halogenated": 6479,
      "berries": 6480,
      "aminoderivatives": 6481,
      "carbamate": 6482,
      "mycotoxin": 6483,
      "stingray": 6484,
      "originating": 6485,
      "dacryoadenitis": 6486,
      "incendi": 6487,
      "nitrogen": 6488,
      "nitroderivatives": 6489,
      "nitroglycer": 6490,
      "alkalis": 6491,
      "alkalilike": 6492,
      "branches": 6493,
      "fusel": 6494,
      "fuels": 6495,
      "conflagrations": 6496,
      "exhaust": 6497,
      "automobile": 6498,
      "morph": 6499,
      "papil": 6500,
      "rattlesnake": 6501,
      "solvent": 6502,
      "alligator": 6503,
      "petrositis": 6504,
      "petroleum": 6505,
      "paints": 6506,
      "paintball": 6507,
      "chloroform": 6508,
      "chlorofluoroc": 6509,
      "tetrachloride": 6510,
      "tetrachloroethylene": 6511,
      "stepping": 6512,
      "diverticulitis": 6513,
      "anemone": 6514,
      "blepharoconjunctivitis": 6515,
      "ketones": 6516,
      "aerial": 6517,
      "lsd": 6518,
      "lacrimogenic": 6519,
      "panniculitis": 6520,
      "centipedes": 6521,
      "splenic": 6522,
      "strychn": 6523,
      "amphibian": 6524,
      "restricted": 6525,
      "layer": 6526,
      "cyanides": 6527,
      "springoperated": 6528,
      "ridge": 6529,
      "epididymis": 6530,
      "garden": 6531,
      "scorpion": 6532,
      "vomiting": 6533,
      "mushrooms": 6534,
      "fluorine": 6535,
      "recession": 6536,
      "guided": 6537,
      "glycols": 6538,
      "beryllium": 6539,
      "2propanol": 6540,
      "dagger": 6541,
      "evaluation": 6542,
      "fungicides": 6543,
      "jellyfish": 6544,
      "scombroid": 6545,
      "sword": 6546,
      "ofemoral": 6547,
      "enemy": 6548,
      "thallium": 6549,
      "recluse": 6550,
      "seabased": 6551,
      "arbons": 6552,
      "dichlorometh": 6553,
      "counterpulsation": 6554,
      "rodenticides": 6555,
      "formaldehy": 6556,
      "ciguatera": 6557,
      "astigmatism": 6558,
      "perichondritis": 6559,
      "labyrinth": 6560,
      "contralateral": 6561,
      "exposed": 6562,
      "cadmium": 6563,
      "caterpillars": 6564,
      "discarded": 6565,
      "corrected": 6566,
      "adolesc": 6567,
      "cyanide": 6568,
      "umbrella": 6569,
      "lysergide": 6570,
      "combustion": 6571,
      "herbicides": 6572,
      "organophosphate": 6573,
      "tributary": 6574,
      "trichloroethylene": 6575,
      "portugese": 6576,
      "localizationrelated": 6577,
      "flamethrower": 6578,
      "pesticide": 6579,
      "artillery": 6580,
      "crocodile": 6581,
      "incendiary": 6582,
      "nitroglycerin": 6583,
      "chlorofluorocarbons": 6584,
      "strychnine": 6585,
      "dichloromethane": 6586,
      "formaldehyde": 6587,
      "382": 6588,
      "381": 6589,
      "3X4A": 6590,
      "3X4D": 6591,
      "3X4S": 6592,
      "492A": 6593,
      "492D": 6594,
      "492S": 6595,
      "6C": 6596,
      "6E": 6597,
      "6F": 6598,
      "6H": 6599,
      "6J": 6600,
      "6M": 6601,
      "6N": 6602,
      "6Q": 6603,
      "6R": 6604,
      "7B": 6605,
      "856": 6606,
      "C79": 6607,
      "C7A": 6608,
      "F40": 6609,
      "I50": 6610,
      "J84": 6611,
      "R94": 6612,
      "Z48": 6613,
      "Z98": 6614,
      "bab": 6615,
      "border": 6616,
      "oophor": 6617,
      "ze": 6618,
      "ofac": 6619,
      "enlar": 6620,
      "tulous": 6621,
      "rig": 6622,
      "ings": 6623,
      "emphy": 6624,
      "tening": 6625,
      "conduc": 6626,
      "negative": 6627,
      "irri": 6628,
      "toxoplas": 6629,
      "personality": 6630,
      "stemi": 6631,
      "bloodforming": 6632,
      "borne": 6633,
      "253": 6634,
      "change": 6635,
      "before": 6636,
      "testing": 6637,
      "231A": 6638,
      "231D": 6639,
      "231S": 6640,
      "431A": 6641,
      "431D": 6642,
      "431S": 6643,
      "developmental": 6644,
      "streptococcus": 6645,
      "sarcoid": 6646,
      "portal": 6647,
      "mononeuropathy": 6648,
      "epithelium": 6649,
      "shortening": 6650,
      "oophoritis": 6651,
      "ofacial": 6652,
      "emphysema": 6653,
      "conductive": 6654,
      "038": 6655,
      "400": 6656,
      "4X2A": 6657,
      "4X2D": 6658,
      "4X2S": 6659,
      "4X3A": 6660,
      "4X3D": 6661,
      "4X3S": 6662,
      "502A": 6663,
      "502D": 6664,
      "502S": 6665,
      "833": 6666,
      "845": 6667,
      "865": 6668,
      "B08": 6669,
      "C43": 6670,
      "C4A": 6671,
      "D3A": 6672,
      "E75": 6673,
      "I77": 6674,
      "M53": 6675,
      "P05": 6676,
      "Q25": 6677,
      "Q64": 6678,
      "Z90": 6679,
      "Z77": 6680,
      "atures": 6681,
      "cum": 6682,
      "esis": 6683,
      "parac": 6684,
      "tris": 6685,
      "cox": 6686,
      "colo": 6687,
      "ria": 6688,
      "ichia": 6689,
      "sico": 6690,
      "otherapy": 6691,
      "uli": 6692,
      "escher": 6693,
      "nonspecific": 6694,
      "shi": 6695,
      "vesico": 6696,
      "biom": 6697,
      "mamm": 6698,
      "version": 6699,
      "exer": 6700,
      "provi": 6701,
      "disso": 6702,
      "adven": 6703,
      "829A": 6704,
      "829D": 6705,
      "829S": 6706,
      "hiv": 6707,
      "ages": 6708,
      "oides": 6709,
      "features": 6710,
      "49XA": 6711,
      "49XD": 6712,
      "49XS": 6713,
      "613": 6714,
      "hyperostosis": 6715,
      "stromal": 6716,
      "misadven": 6717,
      "acidosis": 6718,
      "palate": 6719,
      "pneumothorax": 6720,
      "giant": 6721,
      "4X1A": 6722,
      "4X1D": 6723,
      "4X1S": 6724,
      "152A": 6725,
      "152D": 6726,
      "152S": 6727,
      "149A": 6728,
      "149D": 6729,
      "149S": 6730,
      "531A": 6731,
      "531D": 6732,
      "531S": 6733,
      "pseud": 6734,
      "window": 6735,
      "plana": 6736,
      "thymic": 6737,
      "perineal": 6738,
      "amylo": 6739,
      "strabismus": 6740,
      "reversible": 6741,
      "escherichia": 6742,
      "biomechanical": 6743,
      "provider": 6744,
      "283": 6745,
      "4X4A": 6746,
      "4X4D": 6747,
      "4X4S": 6748,
      "653": 6749,
      "693": 6750,
      "902A": 6751,
      "902D": 6752,
      "902S": 6753,
      "A9": 6754,
      "D03": 6755,
      "H91": 6756,
      "M42": 6757,
      "M22": 6758,
      "N60": 6759,
      "Q76": 6760,
      "R85": 6761,
      "T19": 6762,
      "V11": 6763,
      "V12": 6764,
      "V22": 6765,
      "V21": 6766,
      "V10": 6767,
      "V24": 6768,
      "V20": 6769,
      "V25": 6770,
      "V13": 6771,
      "V23": 6772,
      "V15": 6773,
      "V16": 6774,
      "V26": 6775,
      "V14": 6776,
      "V18": 6777,
      "V27": 6778,
      "V17": 6779,
      "V28": 6780,
      "W30": 6781,
      "W13": 6782,
      "W27": 6783,
      "X02": 6784,
      "X00": 6785,
      "X96": 6786,
      "Y21": 6787,
      "Z01": 6788,
      "Z16": 6789,
      "gia": 6790,
      "ks": 6791,
      "nos": 6792,
      "sic": 6793,
      "web": 6794,
      "ergency": 6795,
      "inst": 6796,
      "altern": 6797,
      "thing": 6798,
      "cough": 6799,
      "diph": 6800,
      "suic": 6801,
      "emp": 6802,
      "emergency": 6803,
      "malnutri": 6804,
      "ched": 6805,
      "chag": 6806,
      "ets": 6807,
      "cau": 6808,
      "dism": 6809,
      "114A": 6810,
      "114D": 6811,
      "114S": 6812,
      "529A": 6813,
      "529D": 6814,
      "529S": 6815,
      "precerebral": 6816,
      "clus": 6817,
      "omon": 6818,
      "passages": 6819,
      "neoplasms": 6820,
      "463": 6821,
      "50XA": 6822,
      "50XD": 6823,
      "50XS": 6824,
      "organism": 6825,
      "453": 6826,
      "hyperos": 6827,
      "varices": 6828,
      "pneumonitis": 6829,
      "singlefamily": 6830,
      "restor": 6831,
      "white": 6832,
      "241A": 6833,
      "241D": 6834,
      "241S": 6835,
      "332A": 6836,
      "332D": 6837,
      "332S": 6838,
      "051A": 6839,
      "051D": 6840,
      "051S": 6841,
      "meningococcal": 6842,
      "titude": 6843,
      "901A": 6844,
      "901D": 6845,
      "901S": 6846,
      "cholangitis": 6847,
      "perceptual": 6848,
      "hydrocephalus": 6849,
      "clothing": 6850,
      "pushing": 6851,
      "incontinence": 6852,
      "depleted": 6853,
      "emotional": 6854,
      "borderline": 6855,
      "exerci": 6856,
      "instrum": 6857,
      "alternating": 6858,
      "diphther": 6859,
      "malnutrition": 6860,
      "chagas": 6861,
      "389": 6862,
      "592A": 6863,
      "592D": 6864,
      "592S": 6865,
      "692": 6866,
      "635": 6867,
      "669": 6868,
      "611A": 6869,
      "611D": 6870,
      "611S": 6871,
      "612A": 6872,
      "612D": 6873,
      "612S": 6874,
      "711": 6875,
      "846": 6876,
      "802A": 6877,
      "802D": 6878,
      "802S": 6879,
      "9X": 6880,
      "B97": 6881,
      "C49": 6882,
      "F17": 6883,
      "H71": 6884,
      "H80": 6885,
      "K94": 6886,
      "M77": 6887,
      "O92": 6888,
      "O14": 6889,
      "Z12": 6890,
      "Z31": 6891,
      "ise": 6892,
      "idism": 6893,
      "key": 6894,
      "mant": 6895,
      "mechan": 6896,
      "oembolism": 6897,
      "puck": 6898,
      "run": 6899,
      "somatic": 6900,
      "zary": 6901,
      "ension": 6902,
      "alkne": 6903,
      "reform": 6904,
      "ancies": 6905,
      "terich": 6906,
      "sezary": 6907,
      "rival": 6908,
      "dium": 6909,
      "urogenital": 6910,
      "none": 6911,
      "nonrheumatic": 6912,
      "phi": 6913,
      "poi": 6914,
      "ected": 6915,
      "foresti": 6916,
      "proper": 6917,
      "discitis": 6918,
      "paroxy": 6919,
      "52XA": 6920,
      "52XD": 6921,
      "52XS": 6922,
      "120": 6923,
      "124A": 6924,
      "124D": 6925,
      "124S": 6926,
      "salmon": 6927,
      "oids": 6928,
      "dog": 6929,
      "499A": 6930,
      "499D": 6931,
      "499S": 6932,
      "39XA": 6933,
      "39XD": 6934,
      "39XS": 6935,
      "regional": 6936,
      "69XA": 6937,
      "69XD": 6938,
      "69XS": 6939,
      "menstru": 6940,
      "baseball": 6941,
      "23XA": 6942,
      "23XD": 6943,
      "23XS": 6944,
      "atheroembolism": 6945,
      "claw": 6946,
      "spondylolysis": 6947,
      "80XA": 6948,
      "80XD": 6949,
      "80XS": 6950,
      "hypot": 6951,
      "rectal": 6952,
      "deforming": 6953,
      "dysph": 6954,
      "suscep": 6955,
      "circum": 6956,
      "232A": 6957,
      "232D": 6958,
      "232S": 6959,
      "251A": 6960,
      "251D": 6961,
      "251S": 6962,
      "432A": 6963,
      "432D": 6964,
      "432S": 6965,
      "insufficient": 6966,
      "fungoides": 6967,
      "lymphocytic": 6968,
      "lymphocyterich": 6969,
      "words": 6970,
      "oxygen": 6971,
      "alkpositive": 6972,
      "played": 6973,
      "dermatomyositis": 6974,
      "fully": 6975,
      "chromosome": 6976,
      "mediastinal": 6977,
      "gingival": 6978,
      "ketoacidosis": 6979,
      "cellularity": 6980,
      "adolescent": 6981,
      "misadventure": 6982,
      "sicca": 6983,
      "hyperosmolar": 6984,
      "mantle": 6985,
      "mechanism": 6986,
      "alknegative": 6987,
      "forestier": 6988,
      "paroxysmal": 6989,
      "salmonella": 6990,
      "189": 6991,
      "163": 6992,
      "179": 6993,
      "8P": 6994,
      "809A": 6995,
      "809D": 6996,
      "809S": 6997,
      "8X3A": 6998,
      "8X3D": 6999,
      "8X3S": 7000,
      "8X4A": 7001,
      "8X4D": 7002,
      "8X4S": 7003,
      "911": 7004,
      "906": 7005,
      "993": 7006,
      "D04": 7007,
      "H27": 7008,
      "M91": 7009,
      "M33": 7010,
      "Q52": 7011,
      "X71": 7012,
      "Z45": 7013,
      "Z37": 7014,
      "aure": 7015,
      "dol": 7016,
      "doc": 7017,
      "eg": 7018,
      "hid": 7019,
      "lation": 7020,
      "mum": 7021,
      "pec": 7022,
      "psor": 7023,
      "psit": 7024,
      "som": 7025,
      "somnia": 7026,
      "sled": 7027,
      "usu": 7028,
      "incon": 7029,
      "altitude": 7030,
      "ann": 7031,
      "ark": 7032,
      "arrival": 7033,
      "stren": 7034,
      "ulation": 7035,
      "noninflammatory": 7036,
      "department": 7037,
      "umented": 7038,
      "emt": 7039,
      "later": 7040,
      "ids": 7041,
      "chick": 7042,
      "endophthalmitis": 7043,
      "cadi": 7044,
      "820": 7045,
      "929A": 7046,
      "929D": 7047,
      "929S": 7048,
      "aggres": 7049,
      "369": 7050,
      "51XA": 7051,
      "51XD": 7052,
      "51XS": 7053,
      "59XA": 7054,
      "59XD": 7055,
      "59XS": 7056,
      "opharynx": 7057,
      "occupational": 7058,
      "apnea": 7059,
      "prescri": 7060,
      "periodi": 7061,
      "boarder": 7062,
      "899A": 7063,
      "899D": 7064,
      "899S": 7065,
      "62XA": 7066,
      "62XD": 7067,
      "62XS": 7068,
      "clusive": 7069,
      "mention": 7070,
      "hypersomnia": 7071,
      "13XA": 7072,
      "13XD": 7073,
      "13XS": 7074,
      "cells": 7075,
      "pig": 7076,
      "04XA": 7077,
      "04XD": 7078,
      "04XS": 7079,
      "junction": 7080,
      "gram": 7081,
      "member": 7082,
      "pulse": 7083,
      "functions": 7084,
      "polymyositis": 7085,
      "marg": 7086,
      "marrow": 7087,
      "ischio": 7088,
      "goiter": 7089,
      "descent": 7090,
      "gliding": 7091,
      "242A": 7092,
      "242D": 7093,
      "242S": 7094,
      "049A": 7095,
      "049D": 7096,
      "049S": 7097,
      "532A": 7098,
      "532D": 7099,
      "532S": 7100,
      "malaria": 7101,
      "rubella": 7102,
      "801A": 7103,
      "801D": 7104,
      "801S": 7105,
      "battery": 7106,
      "difficul": 7107,
      "endomet": 7108,
      "echinococcus": 7109,
      "hazardous": 7110,
      "elevated": 7111,
      "enlargement": 7112,
      "hypotension": 7113,
      "dysphagia": 7114,
      "aureus": 7115,
      "documented": 7116,
      "psittac": 7117,
      "usually": 7118,
      "inconclusive": 7119,
      "chicken": 7120,
      "aggressive": 7121,
      "prescription": 7122,
      "1st": 7123,
      "535": 7124,
      "5X2A": 7125,
      "5X2D": 7126,
      "5X2S": 7127,
      "5X3A": 7128,
      "5X3D": 7129,
      "5X3S": 7130,
      "751": 7131,
      "759": 7132,
      "991A": 7133,
      "991D": 7134,
      "991S": 7135,
      "992A": 7136,
      "992D": 7137,
      "992S": 7138,
      "C40": 7139,
      "D22": 7140,
      "D23": 7141,
      "D16": 7142,
      "E74": 7143,
      "G90": 7144,
      "H90": 7145,
      "H17": 7146,
      "I60": 7147,
      "J45": 7148,
      "K29": 7149,
      "K85": 7150,
      "N13": 7151,
      "O12": 7152,
      "O42": 7153,
      "O91": 7154,
      "O00": 7155,
      "Q70": 7156,
      "Q55": 7157,
      "S57": 7158,
      "T73": 7159,
      "W49": 7160,
      "W93": 7161,
      "W29": 7162,
      "X92": 7163,
      "X98": 7164,
      "X77": 7165,
      "Y23": 7166,
      "Y27": 7167,
      "Z62": 7168,
      "Z38": 7169,
      "ature": 7170,
      "apo": 7171,
      "brum": 7172,
      "bay": 7173,
      "fer": 7174,
      "hu": 7175,
      "ition": 7176,
      "nocarpal": 7177,
      "pem": 7178,
      "stick": 7179,
      "slide": 7180,
      "xus": 7181,
      "yo": 7182,
      "yon": 7183,
      "encies": 7184,
      "onet": 7185,
      "onfrom": 7186,
      "accomm": 7187,
      "tist": 7188,
      "anage": 7189,
      "orph": 7190,
      "orca": 7191,
      "semia": 7192,
      "racco": 7193,
      "urine": 7194,
      "sider": 7195,
      "stair": 7196,
      "stents": 7197,
      "steps": 7198,
      "ulnocarpal": 7199,
      "escended": 7200,
      "nonmoving": 7201,
      "noninline": 7202,
      "opla": 7203,
      "perman": 7204,
      "perature": 7205,
      "phin": 7206,
      "shark": 7207,
      "dyna": 7208,
      "dermal": 7209,
      "dermis": 7210,
      "labrum": 7211,
      "outlet": 7212,
      "ignition": 7213,
      "duck": 7214,
      "handling": 7215,
      "musculo": 7216,
      "S69": 7217,
      "115A": 7218,
      "115D": 7219,
      "115S": 7220,
      "110A": 7221,
      "110D": 7222,
      "110S": 7223,
      "ularized": 7224,
      "athyro": 7225,
      "parrot": 7226,
      "523": 7227,
      "125A": 7228,
      "125D": 7229,
      "125S": 7230,
      "cytic": 7231,
      "radiohumeral": 7232,
      "0200": 7233,
      "ruc": 7234,
      "921": 7235,
      "921A": 7236,
      "921D": 7237,
      "921S": 7238,
      "922A": 7239,
      "922D": 7240,
      "922S": 7241,
      "undescended": 7242,
      "mite": 7243,
      "wave": 7244,
      "antireflux": 7245,
      "medul": 7246,
      "599": 7247,
      "hard": 7248,
      "plexus": 7249,
      "S87": 7250,
      "ophil": 7251,
      "61XA": 7252,
      "61XD": 7253,
      "61XS": 7254,
      "100200": 7255,
      "intravascular": 7256,
      "obliter": 7257,
      "hoof": 7258,
      "angio": 7259,
      "ellularized": 7260,
      "placing": 7261,
      "macaw": 7262,
      "calcaneofibular": 7263,
      "pellet": 7264,
      "hypertrich": 7265,
      "manhandling": 7266,
      "boardinghouse": 7267,
      "iliofemoral": 7268,
      "turtle": 7269,
      "turkey": 7270,
      "utero": 7271,
      "childrens": 7272,
      "jump": 7273,
      "deficiencies": 7274,
      "reason": 7275,
      "monocytic": 7276,
      "birds": 7277,
      "tidal": 7278,
      "births": 7279,
      "sofa": 7280,
      "hallux": 7281,
      "allodermis": 7282,
      "goose": 7283,
      "temperature": 7284,
      "circadi": 7285,
      "myelomon": 7286,
      "diasis": 7287,
      "obstructive": 7288,
      "rollerskater": 7289,
      "5X1A": 7290,
      "5X1D": 7291,
      "5X1S": 7292,
      "infertility": 7293,
      "351A": 7294,
      "351D": 7295,
      "351S": 7296,
      "341A": 7297,
      "341D": 7298,
      "341S": 7299,
      "lightning": 7300,
      "heelies": 7301,
      "052A": 7302,
      "052D": 7303,
      "052S": 7304,
      "441A": 7305,
      "441D": 7306,
      "441S": 7307,
      "451A": 7308,
      "451D": 7309,
      "451S": 7310,
      "bottomed": 7311,
      "walked": 7312,
      "coracohumeral": 7313,
      "622A": 7314,
      "622D": 7315,
      "622S": 7316,
      "621A": 7317,
      "621D": 7318,
      "621S": 7319,
      "decellularized": 7320,
      "instabilities": 7321,
      "bariatric": 7322,
      "plasma": 7323,
      "c5c6": 7324,
      "c6c7": 7325,
      "c4c5": 7326,
      "glomerular": 7327,
      "deltoid": 7328,
      "baton": 7329,
      "cigarette": 7330,
      "opacities": 7331,
      "lizards": 7332,
      "perineum": 7333,
      "semaids": 7334,
      "flatbottomed": 7335,
      "icesk": 7336,
      "nursing": 7337,
      "nursemaids": 7338,
      "erupted": 7339,
      "jewel": 7340,
      "administration": 7341,
      "ystroller": 7342,
      "rollingtype": 7343,
      "capsule": 7344,
      "storage": 7345,
      "playground": 7346,
      "needle": 7347,
      "recreational": 7348,
      "babystroller": 7349,
      "parachu": 7350,
      "trisomy": 7351,
      "mammary": 7352,
      "suicide": 7353,
      "poietic": 7354,
      "dolphin": 7355,
      "mumps": 7356,
      "ischiocapsular": 7357,
      "glidingtype": 7358,
      "psittacines": 7359,
      "bayonet": 7360,
      "pemphi": 7361,
      "accommod": 7362,
      "orphanage": 7363,
      "raccoon": 7364,
      "stairs": 7365,
      "permanent": 7366,
      "dynamite": 7367,
      "musculocutaneous": 7368,
      "hypertrichosis": 7369,
      "circadian": 7370,
      "myelomonocytic": 7371,
      "jewelry": 7372,
      "parachutist": 7373,
      "482": 7374,
      "481": 7375,
      "509A": 7376,
      "509D": 7377,
      "509S": 7378,
      "5X4A": 7379,
      "5X4D": 7380,
      "5X4S": 7381,
      "606": 7382,
      "7G": 7383,
      "7K": 7384,
      "7P": 7385,
      "752": 7386,
      "749": 7387,
      "D37": 7388,
      "D57": 7389,
      "N48": 7390,
      "Q62": 7391,
      "R39": 7392,
      "R45": 7393,
      "R06": 7394,
      "Z36": 7395,
      "Z79": 7396,
      "awar": 7397,
      "his": 7398,
      "mas": 7399,
      "mma": 7400,
      "rus": 7401,
      "rands": 7402,
      "indi": 7403,
      "intub": 7404,
      "eness": 7405,
      "thal": 7406,
      "reproduc": 7407,
      "tilation": 7408,
      "sum": 7409,
      "elial": 7410,
      "ellosis": 7411,
      "tous": 7412,
      "illa": 7413,
      "capil": 7414,
      "legic": 7415,
      "ocele": 7416,
      "220": 7417,
      "mitral": 7418,
      "lys": 7419,
      "vesic": 7420,
      "093": 7421,
      "hemo": 7422,
      "599A": 7423,
      "599D": 7424,
      "599S": 7425,
      "469": 7426,
      "mode": 7427,
      "063": 7428,
      "postural": 7429,
      "719": 7430,
      "24XA": 7431,
      "24XD": 7432,
      "24XS": 7433,
      "night": 7434,
      "sacchar": 7435,
      "bony": 7436,
      "cusp": 7437,
      "tured": 7438,
      "extreme": 7439,
      "atopic": 7440,
      "polysacchar": 7441,
      "megal": 7442,
      "prison": 7443,
      "cesare": 7444,
      "352A": 7445,
      "352D": 7446,
      "352S": 7447,
      "dentofacial": 7448,
      "6X1A": 7449,
      "6X1D": 7450,
      "6X1S": 7451,
      "cannabisinduced": 7452,
      "machines": 7453,
      "342A": 7454,
      "342D": 7455,
      "342S": 7456,
      "252A": 7457,
      "252D": 7458,
      "252S": 7459,
      "mucopolysacchar": 7460,
      "anguin": 7461,
      "planus": 7462,
      "aphak": 7463,
      "schiz": 7464,
      "anemias": 7465,
      "mononeuropathies": 7466,
      "enterocolitis": 7467,
      "difficult": 7468,
      "tonsillitis": 7469,
      "ophilia": 7470,
      "sarcoidosis": 7471,
      "pseudop": 7472,
      "egg": 7473,
      "marginal": 7474,
      "awareness": 7475,
      "intubation": 7476,
      "reproductive": 7477,
      "capillary": 7478,
      "cesarean": 7479,
      "450": 7480,
      "834": 7481,
      "8X3": 7482,
      "854": 7483,
      "A1": 7484,
      "A21": 7485,
      "B02": 7486,
      "B37": 7487,
      "B27": 7488,
      "C34": 7489,
      "C94": 7490,
      "D89": 7491,
      "D17": 7492,
      "D68": 7493,
      "G25": 7494,
      "G97": 7495,
      "H57": 7496,
      "K56": 7497,
      "M27": 7498,
      "N46": 7499,
      "N81": 7500,
      "N90": 7501,
      "Q51": 7502,
      "Q66": 7503,
      "Z20": 7504,
      "ability": 7505,
      "afibrin": 7506,
      "creta": 7507,
      "drus": 7508,
      "fal": 7509,
      "full": 7510,
      "igravida": 7511,
      "kis": 7512,
      "oval": 7513,
      "olacrimal": 7514,
      "plasia": 7515,
      "sjo": 7516,
      "sanguin": 7517,
      "tun": 7518,
      "uec": 7519,
      "uve": 7520,
      "usis": 7521,
      "who": 7522,
      "inum": 7523,
      "inap": 7524,
      "acular": 7525,
      "unidentified": 7526,
      "rebo": 7527,
      "ril": 7528,
      "dic": 7529,
      "dioid": 7530,
      "diamniotic": 7531,
      "elder": 7532,
      "within": 7533,
      "strands": 7534,
      "lactation": 7535,
      "usalgia": 7536,
      "tomatic": 7537,
      "ationship": 7538,
      "oping": 7539,
      "ata": 7540,
      "att": 7541,
      "attic": 7542,
      "atax": 7543,
      "elas": 7544,
      "fove": 7545,
      "emets": 7546,
      "dyst": 7547,
      "exostosis": 7548,
      "ett": 7549,
      "propri": 7550,
      "color": 7551,
      "causalgia": 7552,
      "discoid": 7553,
      "116A": 7554,
      "116D": 7555,
      "116S": 7556,
      "pars": 7557,
      "parap": 7558,
      "126A": 7559,
      "126D": 7560,
      "126S": 7561,
      "systolic": 7562,
      "023A": 7563,
      "023D": 7564,
      "023S": 7565,
      "929": 7566,
      "013A": 7567,
      "013D": 7568,
      "013S": 7569,
      "genesis": 7570,
      "919": 7571,
      "43XA": 7572,
      "43XD": 7573,
      "43XS": 7574,
      "439A": 7575,
      "439D": 7576,
      "439S": 7577,
      "punctum": 7578,
      "noise": 7579,
      "feeding": 7580,
      "folds": 7581,
      "multigravida": 7582,
      "myelitis": 7583,
      "maculo": 7584,
      "sorption": 7585,
      "nitus": 7586,
      "699": 7587,
      "primigravida": 7588,
      "hyperglyc": 7589,
      "hyperplasia": 7590,
      "retinoschisis": 7591,
      "tricusp": 7592,
      "vascularization": 7593,
      "pinguec": 7594,
      "83XA": 7595,
      "83XD": 7596,
      "83XS": 7597,
      "14XA": 7598,
      "14XD": 7599,
      "14XS": 7600,
      "idity": 7601,
      "glaucomatous": 7602,
      "99XA": 7603,
      "99XD": 7604,
      "99XS": 7605,
      "ogenemia": 7606,
      "hematopoietic": 7607,
      "relationship": 7608,
      "scotoma": 7609,
      "pulp": 7610,
      "polyps": 7611,
      "bronchitis": 7612,
      "broad": 7613,
      "canaliculitis": 7614,
      "glot": 7615,
      "diastolic": 7616,
      "encephalomyelitis": 7617,
      "cartilagenous": 7618,
      "442A": 7619,
      "442D": 7620,
      "442S": 7621,
      "illedema": 7622,
      "059A": 7623,
      "059D": 7624,
      "059S": 7625,
      "meningo": 7626,
      "meninges": 7627,
      "asymptomatic": 7628,
      "atrial": 7629,
      "ematous": 7630,
      "myocarditis": 7631,
      "diverticular": 7632,
      "ureteralreflux": 7633,
      "hypopyon": 7634,
      "tinnitus": 7635,
      "nasolacrimal": 7636,
      "candidiasis": 7637,
      "rickett": 7638,
      "descemets": 7639,
      "morphologic": 7640,
      "labyrinthine": 7641,
      "rigidity": 7642,
      "irrit": 7643,
      "vesicoureteralreflux": 7644,
      "webbed": 7645,
      "hyperosmolarity": 7646,
      "hidrosis": 7647,
      "young": 7648,
      "obliterative": 7649,
      "accommodation": 7650,
      "individ": 7651,
      "afibrinogenemia": 7652,
      "drusen": 7653,
      "kissing": 7654,
      "sanguinous": 7655,
      "tunnel": 7656,
      "uveitis": 7657,
      "whooping": 7658,
      "inappropri": 7659,
      "rebound": 7660,
      "dioidomycosis": 7661,
      "elderly": 7662,
      "maculopathy": 7663,
      "tricuspid": 7664,
      "inappropriate": 7665,
      "048": 7666,
      "6X2A": 7667,
      "6X2D": 7668,
      "6X2S": 7669,
      "6X3A": 7670,
      "6X3D": 7671,
      "6X3S": 7672,
      "712": 7673,
      "838": 7674,
      "951": 7675,
      "959": 7676,
      "909A": 7677,
      "909D": 7678,
      "909S": 7679,
      "A22": 7680,
      "A51": 7681,
      "A39": 7682,
      "B00": 7683,
      "B96": 7684,
      "C93": 7685,
      "D72": 7686,
      "E89": 7687,
      "E78": 7688,
      "F51": 7689,
      "G81": 7690,
      "I66": 7691,
      "I67": 7692,
      "K31": 7693,
      "M35": 7694,
      "M16": 7695,
      "N52": 7696,
      "N35": 7697,
      "N63": 7698,
      "N94": 7699,
      "Q65": 7700,
      "R41": 7701,
      "V89": 7702,
      "V98": 7703,
      "W36": 7704,
      "W50": 7705,
      "W10": 7706,
      "W26": 7707,
      "X01": 7708,
      "X15": 7709,
      "X03": 7710,
      "X99": 7711,
      "X94": 7712,
      "X95": 7713,
      "X74": 7714,
      "X73": 7715,
      "X78": 7716,
      "Y08": 7717,
      "Y28": 7718,
      "Z71": 7719,
      "Z93": 7720,
      "Z80": 7721,
      "ef": 7722,
      "kapo": 7723,
      "steri": 7724,
      "viti": 7725,
      "xero": 7726,
      "entulous": 7727,
      "onic": 7728,
      "edentulous": 7729,
      "unusually": 7730,
      "spher": 7731,
      "aria": 7732,
      "arance": 7733,
      "rized": 7734,
      "count": 7735,
      "surized": 7736,
      "loas": 7737,
      "ultra": 7738,
      "ligo": 7739,
      "opro": 7740,
      "typhoid": 7741,
      "shoe": 7742,
      "pearance": 7743,
      "maturity": 7744,
      "chloas": 7745,
      "isol": 7746,
      "irregular": 7747,
      "football": 7748,
      "120A": 7749,
      "120D": 7750,
      "120S": 7751,
      "vibra": 7752,
      "genic": 7753,
      "proctitis": 7754,
      "appearance": 7755,
      "bowel": 7756,
      "33XA": 7757,
      "33XD": 7758,
      "33XS": 7759,
      "pressurized": 7760,
      "103": 7761,
      "hemorrhoids": 7762,
      "tree": 7763,
      "melting": 7764,
      "893": 7765,
      "vasa": 7766,
      "support": 7767,
      "izing": 7768,
      "frontal": 7769,
      "stroke": 7770,
      "electric": 7771,
      "873": 7772,
      "95XA": 7773,
      "95XD": 7774,
      "95XS": 7775,
      "polyarthritis": 7776,
      "1X5A": 7777,
      "1X5D": 7778,
      "1X5S": 7779,
      "1X6A": 7780,
      "1X6D": 7781,
      "1X6S": 7782,
      "4X5A": 7783,
      "4X5D": 7784,
      "4X5S": 7785,
      "4X6A": 7786,
      "4X6D": 7787,
      "4X6S": 7788,
      "milk": 7789,
      "reduced": 7790,
      "rotation": 7791,
      "adhesive": 7792,
      "133A": 7793,
      "133D": 7794,
      "133S": 7795,
      "transitory": 7796,
      "7X1A": 7797,
      "7X1D": 7798,
      "7X1S": 7799,
      "452A": 7800,
      "452D": 7801,
      "452S": 7802,
      "339A": 7803,
      "339D": 7804,
      "339S": 7805,
      "249A": 7806,
      "249D": 7807,
      "249S": 7808,
      "anomaly": 7809,
      "mucosa": 7810,
      "159A": 7811,
      "159D": 7812,
      "159S": 7813,
      "work": 7814,
      "amnestic": 7815,
      "aryngeal": 7816,
      "coccyx": 7817,
      "erythema": 7818,
      "maxilla": 7819,
      "appliance": 7820,
      "sickness": 7821,
      "tools": 7822,
      "environmental": 7823,
      "spermia": 7824,
      "retraction": 7825,
      "exercise": 7826,
      "menstrual": 7827,
      "thalas": 7828,
      "megalo": 7829,
      "dystonia": 7830,
      "kaposis": 7831,
      "vitiligo": 7832,
      "xeroderma": 7833,
      "chloasma": 7834,
      "isolated": 7835,
      "536": 7836,
      "643": 7837,
      "663": 7838,
      "691A": 7839,
      "691D": 7840,
      "691S": 7841,
      "6X4A": 7842,
      "6X4D": 7843,
      "6X4S": 7844,
      "729": 7845,
      "855": 7846,
      "932": 7847,
      "931": 7848,
      "A41": 7849,
      "B67": 7850,
      "C72": 7851,
      "C57": 7852,
      "D49": 7853,
      "E05": 7854,
      "G93": 7855,
      "J01": 7856,
      "K52": 7857,
      "K22": 7858,
      "N39": 7859,
      "N30": 7860,
      "O71": 7861,
      "O07": 7862,
      "P91": 7863,
      "Q53": 7864,
      "R93": 7865,
      "Z02": 7866,
      "Z92": 7867,
      "Z05": 7868,
      "Z18": 7869,
      "Z94": 7870,
      "Z73": 7871,
      "Z28": 7872,
      "bifi": 7873,
      "dar": 7874,
      "fri": 7875,
      "gmo": 7876,
      "hb": 7877,
      "ision": 7878,
      "jun": 7879,
      "kary": 7880,
      "mosa": 7881,
      "olet": 7882,
      "oosp": 7883,
      "oses": 7884,
      "pation": 7885,
      "uble": 7886,
      "xer": 7887,
      "xanth": 7888,
      "ermia": 7889,
      "incom": 7890,
      "innerv": 7891,
      "internum": 7892,
      "ony": 7893,
      "acanth": 7894,
      "reatt": 7895,
      "spa": 7896,
      "spor": 7897,
      "spina": 7898,
      "fill": 7899,
      "oring": 7900,
      "rich": 7901,
      "icella": 7902,
      "icism": 7903,
      "sided": 7904,
      "size": 7905,
      "sigmo": 7906,
      "loma": 7907,
      "tose": 7908,
      "nonmedic": 7909,
      "asm": 7910,
      "assist": 7911,
      "perox": 7912,
      "phanti": 7913,
      "idal": 7914,
      "mainten": 7915,
      "madar": 7916,
      "externum": 7917,
      "chain": 7918,
      "ionizing": 7919,
      "absorption": 7920,
      "levels": 7921,
      "110": 7922,
      "114": 7923,
      "visible": 7924,
      "viability": 7925,
      "violet": 7926,
      "922": 7927,
      "carbo": 7928,
      "itoring": 7929,
      "010": 7930,
      "223A": 7931,
      "223D": 7932,
      "223S": 7933,
      "fascic": 7934,
      "mito": 7935,
      "day": 7936,
      "double": 7937,
      "gamma": 7938,
      "461A": 7939,
      "461D": 7940,
      "461S": 7941,
      "814": 7942,
      "mmer": 7943,
      "rhosis": 7944,
      "monitoring": 7945,
      "regimen": 7946,
      "203": 7947,
      "tubal": 7948,
      "omyopathy": 7949,
      "ached": 7950,
      "laryn": 7951,
      "011G": 7952,
      "011K": 7953,
      "012G": 7954,
      "012K": 7955,
      "scopic": 7956,
      "hydroureter": 7957,
      "varicella": 7958,
      "vault": 7959,
      "micturi": 7960,
      "depressed": 7961,
      "001G": 7962,
      "001K": 7963,
      "031G": 7964,
      "031K": 7965,
      "extratesticular": 7966,
      "azion": 7967,
      "azoosp": 7968,
      "hind": 7969,
      "thyrotoxic": 7970,
      "tracheostomy": 7971,
      "ulosis": 7972,
      "cerebrospinal": 7973,
      "gastroenteritis": 7974,
      "elephanti": 7975,
      "cirrhosis": 7976,
      "3X5A": 7977,
      "3X5D": 7978,
      "3X5S": 7979,
      "3X6A": 7980,
      "3X6D": 7981,
      "3X6S": 7982,
      "111G": 7983,
      "111K": 7984,
      "112G": 7985,
      "112K": 7986,
      "examinations": 7987,
      "endocardi": 7988,
      "033A": 7989,
      "033D": 7990,
      "033S": 7991,
      "tuberculous": 7992,
      "143A": 7993,
      "143D": 7994,
      "143S": 7995,
      "239A": 7996,
      "239D": 7997,
      "239S": 7998,
      "pancolitis": 7999,
      "134A": 8000,
      "134D": 8001,
      "134S": 8002,
      "261A": 8003,
      "261D": 8004,
      "261S": 8005,
      "cytomegalo": 8006,
      "decision": 8007,
      "oligospermia": 8008,
      "chiasm": 8009,
      "dermatochalasis": 8010,
      "glucose": 8011,
      "blepharophi": 8012,
      "fatty": 8013,
      "oculopathy": 8014,
      "chalazion": 8015,
      "trichiasis": 8016,
      "blepharochalasis": 8017,
      "hydrocephalic": 8018,
      "immaturity": 8019,
      "eruption": 8020,
      "eczematous": 8021,
      "rectosigmo": 8022,
      "refractory": 8023,
      "coxa": 8024,
      "organisms": 8025,
      "diphtheria": 8026,
      "running": 8027,
      "property": 8028,
      "susceptibility": 8029,
      "psoriasis": 8030,
      "mastitis": 8031,
      "sjog": 8032,
      "ataxia": 8033,
      "elasma": 8034,
      "irritant": 8035,
      "ultraviolet": 8036,
      "vibration": 8037,
      "thalassemia": 8038,
      "bifida": 8039,
      "friend": 8040,
      "mosaicism": 8041,
      "xanthelasma": 8042,
      "innervation": 8043,
      "reattached": 8044,
      "nonmedicinal": 8045,
      "maintenance": 8046,
      "madarosis": 8047,
      "micturition": 8048,
      "azoospermia": 8049,
      "elephantiasis": 8050,
      "blepharophimosis": 8051,
      "rectosigmoiditis": 8052,
      "280": 8053,
      "636": 8054,
      "690": 8055,
      "692A": 8056,
      "692D": 8057,
      "692S": 8058,
      "701": 8059,
      "7X2A": 8060,
      "7X2D": 8061,
      "7X2S": 8062,
      "7X3A": 8063,
      "7X3D": 8064,
      "7X3S": 8065,
      "850": 8066,
      "848": 8067,
      "C47": 8068,
      "C78": 8069,
      "D41": 8070,
      "D81": 8071,
      "D30": 8072,
      "D86": 8073,
      "F43": 8074,
      "G04": 8075,
      "I27": 8076,
      "J15": 8077,
      "K11": 8078,
      "K59": 8079,
      "K06": 8080,
      "K13": 8081,
      "L40": 8082,
      "L74": 8083,
      "M18": 8084,
      "N64": 8085,
      "O04": 8086,
      "O08": 8087,
      "P03": 8088,
      "Q87": 8089,
      "R82": 8090,
      "Z9": 8091,
      "Z82": 8092,
      "Z22": 8093,
      "Z00": 8094,
      "Z72": 8095,
      "Z83": 8096,
      "Z97": 8097,
      "Z95": 8098,
      "ail": 8099,
      "agenesis": 8100,
      "bl": 8101,
      "bri": 8102,
      "crac": 8103,
      "dal": 8104,
      "gar": 8105,
      "gol": 8106,
      "hell": 8107,
      "jection": 8108,
      "sun": 8109,
      "ually": 8110,
      "ences": 8111,
      "rejection": 8112,
      "tipation": 8113,
      "racquet": 8114,
      "elo": 8115,
      "subway": 8116,
      "nonsurgical": 8117,
      "liz": 8118,
      "liqu": 8119,
      "lift": 8120,
      "life": 8121,
      "foster": 8122,
      "pericardi": 8123,
      "phies": 8124,
      "healed": 8125,
      "dust": 8126,
      "118A": 8127,
      "118D": 8128,
      "118S": 8129,
      "addi": 8130,
      "radio": 8131,
      "024A": 8132,
      "024D": 8133,
      "024S": 8134,
      "infancy": 8135,
      "infected": 8136,
      "014": 8137,
      "014A": 8138,
      "014D": 8139,
      "014S": 8140,
      "413A": 8141,
      "doub": 8142,
      "ducts": 8143,
      "aplasia": 8144,
      "constipation": 8145,
      "patellar": 8146,
      "myiasis": 8147,
      "drop": 8148,
      "25XA": 8149,
      "25XD": 8150,
      "25XS": 8151,
      "macy": 8152,
      "vaso": 8153,
      "vasation": 8154,
      "menop": 8155,
      "facti": 8156,
      "hyperhidrosis": 8157,
      "postinfective": 8158,
      "05XA": 8159,
      "05XD": 8160,
      "05XS": 8161,
      "scrat": 8162,
      "spondylitis": 8163,
      "cardiomyopathy": 8164,
      "coccosis": 8165,
      "habi": 8166,
      "chemotherapy": 8167,
      "101G": 8168,
      "101K": 8169,
      "reasons": 8170,
      "131G": 8171,
      "131K": 8172,
      "032G": 8173,
      "032K": 8174,
      "extravasation": 8175,
      "pulmonale": 8176,
      "magne": 8177,
      "ocytosis": 8178,
      "vaccination": 8179,
      "paralysis": 8180,
      "2X5A": 8181,
      "2X5D": 8182,
      "2X5S": 8183,
      "2X6A": 8184,
      "2X6D": 8185,
      "2X6S": 8186,
      "septal": 8187,
      "0X5A": 8188,
      "0X5D": 8189,
      "0X5S": 8190,
      "0X6A": 8191,
      "0X6D": 8192,
      "0X6S": 8193,
      "121G": 8194,
      "121K": 8195,
      "5X5A": 8196,
      "5X5D": 8197,
      "5X5S": 8198,
      "5X6A": 8199,
      "5X6D": 8200,
      "5X6S": 8201,
      "021G": 8202,
      "021K": 8203,
      "022G": 8204,
      "022K": 8205,
      "009G": 8206,
      "009K": 8207,
      "steroid": 8208,
      "002G": 8209,
      "002K": 8210,
      "microscopic": 8211,
      "pseudom": 8212,
      "estrogen": 8213,
      "144A": 8214,
      "144D": 8215,
      "144S": 8216,
      "mucositis": 8217,
      "539A": 8218,
      "539D": 8219,
      "539S": 8220,
      "359A": 8221,
      "359D": 8222,
      "359S": 8223,
      "349A": 8224,
      "349D": 8225,
      "349S": 8226,
      "plasmacy": 8227,
      "working": 8228,
      "episodic": 8229,
      "601A": 8230,
      "601D": 8231,
      "601S": 8232,
      "631A": 8233,
      "631D": 8234,
      "631S": 8235,
      "bathroom": 8236,
      "thymus": 8237,
      "parental": 8238,
      "mediastinum": 8239,
      "jejun": 8240,
      "administrative": 8241,
      "candidal": 8242,
      "papilloma": 8243,
      "toxoplasma": 8244,
      "dissoci": 8245,
      "amyloidosis": 8246,
      "empty": 8247,
      "spheric": 8248,
      "xerosis": 8249,
      "fascicular": 8250,
      "cytomegaloviral": 8251,
      "cracked": 8252,
      "golf": 8253,
      "hellp": 8254,
      "doubling": 8255,
      "papillomavirus": 8256,
      "082": 8257,
      "040": 8258,
      "081": 8259,
      "0c1": 8260,
      "180": 8261,
      "260": 8262,
      "550": 8263,
      "644": 8264,
      "645": 8265,
      "602A": 8266,
      "602D": 8267,
      "602S": 8268,
      "742": 8269,
      "741": 8270,
      "761": 8271,
      "710": 8272,
      "7X4A": 8273,
      "7X4D": 8274,
      "7X4S": 8275,
      "8t9": 8276,
      "A0": 8277,
      "A01": 8278,
      "A36": 8279,
      "A06": 8280,
      "B57": 8281,
      "C90": 8282,
      "D21": 8283,
      "D69": 8284,
      "D05": 8285,
      "D78": 8286,
      "E76": 8287,
      "E88": 8288,
      "H92": 8289,
      "H46": 8290,
      "H69": 8291,
      "I21": 8292,
      "I71": 8293,
      "J96": 8294,
      "J98": 8295,
      "K41": 8296,
      "K40": 8297,
      "K71": 8298,
      "K62": 8299,
      "K04": 8300,
      "L76": 8301,
      "O86": 8302,
      "P02": 8303,
      "Q27": 8304,
      "R22": 8305,
      "R78": 8306,
      "R68": 8307,
      "S16": 8308,
      "S07": 8309,
      "W09": 8310,
      "W00": 8311,
      "W40": 8312,
      "W89": 8313,
      "W90": 8314,
      "X82": 8315,
      "X50": 8316,
      "X06": 8317,
      "X83": 8318,
      "Y04": 8319,
      "Z46": 8320,
      "Z63": 8321,
      "Z34": 8322,
      "Z53": 8323,
      "ake": 8324,
      "arel": 8325,
      "bunion": 8326,
      "bather": 8327,
      "baro": 8328,
      "bcra": 8329,
      "belo": 8330,
      "crep": 8331,
      "c7t": 8332,
      "c0c1": 8333,
      "doster": 8334,
      "fre": 8335,
      "gil": 8336,
      "hp": 8337,
      "jam": 8338,
      "ki": 8339,
      "kia": 8340,
      "md": 8341,
      "mec": 8342,
      "nology": 8343,
      "nyst": 8344,
      "ola": 8345,
      "otype": 8346,
      "oking": 8347,
      "pure": 8348,
      "squir": 8349,
      "some": 8350,
      "t7": 8351,
      "tel": 8352,
      "tank": 8353,
      "tech": 8354,
      "t8t9": 8355,
      "uous": 8356,
      "wmd": 8357,
      "yment": 8358,
      "yach": 8359,
      "intern": 8360,
      "onism": 8361,
      "edent": 8362,
      "aclys": 8363,
      "unrestricted": 8364,
      "alop": 8365,
      "aldoster": 8366,
      "rehabi": 8367,
      "spur": 8368,
      "tire": 8369,
      "tigu": 8370,
      "ecia": 8371,
      "ecedent": 8372,
      "fis": 8373,
      "teritis": 8374,
      "cooking": 8375,
      "arteritis": 8376,
      "ridden": 8377,
      "sequences": 8378,
      "wiring": 8379,
      "urtic": 8380,
      "othermia": 8381,
      "ration": 8382,
      "rodent": 8383,
      "load": 8384,
      "loyment": 8385,
      "ulsive": 8386,
      "toile": 8387,
      "noncom": 8388,
      "noninfectious": 8389,
      "nonpurulent": 8390,
      "cipi": 8391,
      "oplasia": 8392,
      "atmo": 8393,
      "ascent": 8394,
      "emann": 8395,
      "otrich": 8396,
      "dermic": 8397,
      "derail": 8398,
      "contigu": 8399,
      "consequences": 8400,
      "opening": 8401,
      "ectasis": 8402,
      "lowerinner": 8403,
      "lowerouter": 8404,
      "neoplasia": 8405,
      "illin": 8406,
      "antecedent": 8407,
      "product": 8408,
      "prolymphocytic": 8409,
      "cavein": 8410,
      "collisionnoncollision": 8411,
      "828": 8412,
      "parathyro": 8413,
      "cylin": 8414,
      "upperinner": 8415,
      "upperouter": 8416,
      "025A": 8417,
      "025D": 8418,
      "025S": 8419,
      "carnit": 8420,
      "itant": 8421,
      "itancies": 8422,
      "015A": 8423,
      "015D": 8424,
      "015S": 8425,
      "313A": 8426,
      "313D": 8427,
      "313S": 8428,
      "224A": 8429,
      "224D": 8430,
      "224S": 8431,
      "motorvehicle": 8432,
      "agmus": 8433,
      "involved": 8434,
      "partner": 8435,
      "litative": 8436,
      "413D": 8437,
      "413S": 8438,
      "361A": 8439,
      "361D": 8440,
      "361S": 8441,
      "362A": 8442,
      "362D": 8443,
      "362S": 8444,
      "513A": 8445,
      "513D": 8446,
      "513S": 8447,
      "xiphoid": 8448,
      "feet": 8449,
      "213A": 8450,
      "213D": 8451,
      "213S": 8452,
      "462A": 8453,
      "462D": 8454,
      "462S": 8455,
      "619A": 8456,
      "619D": 8457,
      "619S": 8458,
      "rhinitis": 8459,
      "103A": 8460,
      "103D": 8461,
      "103S": 8462,
      "mouse": 8463,
      "ebic": 8464,
      "intraventricular": 8465,
      "genitals": 8466,
      "postures": 8467,
      "surfac": 8468,
      "bordet": 8469,
      "amebic": 8470,
      "629A": 8471,
      "629D": 8472,
      "629S": 8473,
      "niemann": 8474,
      "behind": 8475,
      "479": 8476,
      "72XA": 8477,
      "72XD": 8478,
      "72XS": 8479,
      "cellaneous": 8480,
      "pipe": 8481,
      "thromboembolism": 8482,
      "cution": 8483,
      "nonmotorvehicle": 8484,
      "999A": 8485,
      "999D": 8486,
      "999S": 8487,
      "hammer": 8488,
      "011P": 8489,
      "012P": 8490,
      "entering": 8491,
      "hypothermia": 8492,
      "delivered": 8493,
      "pulled": 8494,
      "miscellaneous": 8495,
      "continent": 8496,
      "lester": 8497,
      "96XA": 8498,
      "96XD": 8499,
      "96XS": 8500,
      "cataclys": 8501,
      "apparel": 8502,
      "132G": 8503,
      "132K": 8504,
      "leukodystrophy": 8505,
      "leukopla": 8506,
      "epicondylitis": 8507,
      "paper": 8508,
      "041G": 8509,
      "041K": 8510,
      "descended": 8511,
      "mitory": 8512,
      "pyemic": 8513,
      "gastrostomy": 8514,
      "nonpoweredaircraft": 8515,
      "hypodermic": 8516,
      "cholester": 8517,
      "electrocution": 8518,
      "122G": 8519,
      "122K": 8520,
      "swimmingpool": 8521,
      "skateboarder": 8522,
      "dormitory": 8523,
      "gonorrhea": 8524,
      "snowboard": 8525,
      "snowski": 8526,
      "t6t7": 8527,
      "t12l1": 8528,
      "bomber": 8529,
      "109G": 8530,
      "109K": 8531,
      "102G": 8532,
      "102K": 8533,
      "262A": 8534,
      "262D": 8535,
      "262S": 8536,
      "135A": 8537,
      "135D": 8538,
      "135S": 8539,
      "t10t11": 8540,
      "angioma": 8541,
      "angiopathy": 8542,
      "landslide": 8543,
      "above": 8544,
      "259A": 8545,
      "259D": 8546,
      "259S": 8547,
      "increased": 8548,
      "541A": 8549,
      "541D": 8550,
      "541S": 8551,
      "herpesvirus": 8552,
      "sacroiliac": 8553,
      "bucket": 8554,
      "c1c2": 8555,
      "c2c3": 8556,
      "c3c4": 8557,
      "poxvirus": 8558,
      "onephrosis": 8559,
      "tensiontype": 8560,
      "t2t3": 8561,
      "aryngitis": 8562,
      "areola": 8563,
      "erythematous": 8564,
      "pinched": 8565,
      "epithelial": 8566,
      "l1l2": 8567,
      "l2l3": 8568,
      "l3l4": 8569,
      "l4l5": 8570,
      "t1t2": 8571,
      "athletic": 8572,
      "sciatica": 8573,
      "impeti": 8574,
      "incontinent": 8575,
      "retracted": 8576,
      "coccidioidomycosis": 8577,
      "eczema": 8578,
      "actinic": 8579,
      "t3t4": 8580,
      "t4t5": 8581,
      "manubrium": 8582,
      "manubrial": 8583,
      "colostomy": 8584,
      "caught": 8585,
      "cluster": 8586,
      "restoration": 8587,
      "instruments": 8588,
      "pecked": 8589,
      "strenuous": 8590,
      "iceskates": 8591,
      "pemphigus": 8592,
      "vesicant": 8593,
      "false": 8594,
      "hyperglycemia": 8595,
      "incompe": 8596,
      "filled": 8597,
      "endocarditis": 8598,
      "friendly": 8599,
      "liquid": 8600,
      "pericarditis": 8601,
      "plasmacytoma": 8602,
      "dissociation": 8603,
      "barotrauma": 8604,
      "bcrabl": 8605,
      "below": 8606,
      "crepitant": 8607,
      "c7t1": 8608,
      "jammed": 8609,
      "nystagmus": 8610,
      "squirrel": 8611,
      "technology": 8612,
      "yacht": 8613,
      "alopecia": 8614,
      "aldosteronism": 8615,
      "rehabilitative": 8616,
      "toilet": 8617,
      "noncomitancies": 8618,
      "cipient": 8619,
      "atmospheric": 8620,
      "otrichosis": 8621,
      "derailment": 8622,
      "contiguous": 8623,
      "cylinder": 8624,
      "carnitine": 8625,
      "surfacing": 8626,
      "bordetella": 8627,
      "niemannpick": 8628,
      "cataclysmic": 8629,
      "leukoplakia": 8630,
      "056": 8631,
      "762": 8632,
      "711A": 8633,
      "711D": 8634,
      "711S": 8635,
      "939": 8636,
      "A2": 8637,
      "A02": 8638,
      "A92": 8639,
      "A04": 8640,
      "B9": 8641,
      "B26": 8642,
      "B58": 8643,
      "C96": 8644,
      "C76": 8645,
      "D36": 8646,
      "D35": 8647,
      "D00": 8648,
      "D46": 8649,
      "D61": 8650,
      "D44": 8651,
      "D29": 8652,
      "D47": 8653,
      "D48": 8654,
      "E87": 8655,
      "F52": 8656,
      "F60": 8657,
      "F65": 8658,
      "G12": 8659,
      "G31": 8660,
      "I45": 8661,
      "I65": 8662,
      "I74": 8663,
      "K03": 8664,
      "K76": 8665,
      "L24": 8666,
      "L23": 8667,
      "M31": 8668,
      "M17": 8669,
      "N42": 8670,
      "N85": 8671,
      "P00": 8672,
      "P24": 8673,
      "P83": 8674,
      "P28": 8675,
      "Q61": 8676,
      "Q93": 8677,
      "Z56": 8678,
      "Z57": 8679,
      "ae": 8680,
      "bring": 8681,
      "basi": 8682,
      "closure": 8683,
      "din": 8684,
      "dna": 8685,
      "ejac": 8686,
      "molysis": 8687,
      "plegic": 8688,
      "tl": 8689,
      "xlin": 8690,
      "yard": 8691,
      "recent": 8692,
      "lei": 8693,
      "ley": 8694,
      "lepro": 8695,
      "cour": 8696,
      "ari": 8697,
      "diet": 8698,
      "icillin": 8699,
      "sial": 8700,
      "sium": 8701,
      "stone": 8702,
      "strea": 8703,
      "lobular": 8704,
      "usal": 8705,
      "liosi": 8706,
      "dele": 8707,
      "dequ": 8708,
      "deaf": 8709,
      "asles": 8710,
      "photo": 8711,
      "boma": 8712,
      "biasis": 8713,
      "tence": 8714,
      "malabsorption": 8715,
      "team": 8716,
      "dermolysis": 8717,
      "upbring": 8718,
      "peptic": 8719,
      "irus": 8720,
      "losa": 8721,
      "118": 8722,
      "124": 8723,
      "tisfactory": 8724,
      "026A": 8725,
      "026D": 8726,
      "026S": 8727,
      "920": 8728,
      "ments": 8729,
      "metropia": 8730,
      "omonia": 8731,
      "omiasis": 8732,
      "018": 8733,
      "016A": 8734,
      "016D": 8735,
      "016S": 8736,
      "310A": 8737,
      "310D": 8738,
      "310S": 8739,
      "lichen": 8740,
      "226A": 8741,
      "226D": 8742,
      "226S": 8743,
      "hygi": 8744,
      "414A": 8745,
      "uses": 8746,
      "orted": 8747,
      "514A": 8748,
      "514D": 8749,
      "514S": 8750,
      "590A": 8751,
      "590D": 8752,
      "590S": 8753,
      "punct": 8754,
      "feto": 8755,
      "393": 8756,
      "ophren": 8757,
      "813A": 8758,
      "813D": 8759,
      "813S": 8760,
      "613A": 8761,
      "614A": 8762,
      "614D": 8763,
      "614S": 8764,
      "613D": 8765,
      "613S": 8766,
      "104A": 8767,
      "104D": 8768,
      "104S": 8769,
      "44XA": 8770,
      "44XD": 8771,
      "44XS": 8772,
      "303": 8773,
      "intraepithelial": 8774,
      "genitalia": 8775,
      "ruptured": 8776,
      "893A": 8777,
      "893D": 8778,
      "893S": 8779,
      "weak": 8780,
      "epidermolysis": 8781,
      "34XA": 8782,
      "34XD": 8783,
      "34XS": 8784,
      "supra": 8785,
      "hyperaldosteronism": 8786,
      "15XA": 8787,
      "15XD": 8788,
      "15XS": 8789,
      "satisfactory": 8790,
      "heartlung": 8791,
      "static": 8792,
      "asper": 8793,
      "nodosa": 8794,
      "8X5A": 8795,
      "8X5D": 8796,
      "8X5S": 8797,
      "8X6A": 8798,
      "8X6D": 8799,
      "8X6S": 8800,
      "101P": 8801,
      "measles": 8802,
      "84XA": 8803,
      "84XD": 8804,
      "84XS": 8805,
      "001P": 8806,
      "031P": 8807,
      "131P": 8808,
      "gangliosi": 8809,
      "032P": 8810,
      "membranous": 8811,
      "defined": 8812,
      "allograft": 8813,
      "132P": 8814,
      "latent": 8815,
      "isomal": 8816,
      "bullosa": 8817,
      "globin": 8818,
      "042G": 8819,
      "042K": 8820,
      "hypox": 8821,
      "121P": 8822,
      "111P": 8823,
      "021P": 8824,
      "022P": 8825,
      "112P": 8826,
      "122P": 8827,
      "methicillin": 8828,
      "019G": 8829,
      "019K": 8830,
      "medication": 8831,
      "omalacia": 8832,
      "otrophic": 8833,
      "retrovirus": 8834,
      "pneumoniae": 8835,
      "granulosus": 8836,
      "009P": 8837,
      "002P": 8838,
      "dystrophies": 8839,
      "bedroom": 8840,
      "109P": 8841,
      "831A": 8842,
      "831D": 8843,
      "831S": 8844,
      "102P": 8845,
      "832A": 8846,
      "832D": 8847,
      "832S": 8848,
      "034A": 8849,
      "034D": 8850,
      "034S": 8851,
      "136A": 8852,
      "136D": 8853,
      "136S": 8854,
      "orbits": 8855,
      "quadriplegia": 8856,
      "mucocele": 8857,
      "plasmo": 8858,
      "145A": 8859,
      "145D": 8860,
      "145S": 8861,
      "271A": 8862,
      "271D": 8863,
      "271S": 8864,
      "551A": 8865,
      "551D": 8866,
      "551S": 8867,
      "632A": 8868,
      "632D": 8869,
      "632S": 8870,
      "471A": 8871,
      "471D": 8872,
      "471S": 8873,
      "dermatopolymyositis": 8874,
      "communicable": 8875,
      "papillary": 8876,
      "trichomonia": 8877,
      "binocular": 8878,
      "193A": 8879,
      "193D": 8880,
      "193S": 8881,
      "diverticulum": 8882,
      "nephrotic": 8883,
      "190A": 8884,
      "190D": 8885,
      "190S": 8886,
      "spermatic": 8887,
      "periodic": 8888,
      "difficulties": 8889,
      "medullary": 8890,
      "schizophren": 8891,
      "meningoencephalitis": 8892,
      "sporotrichosis": 8893,
      "fattyacid": 8894,
      "hpv": 8895,
      "fissure": 8896,
      "incompetence": 8897,
      "basilar": 8898,
      "xlinked": 8899,
      "upbringing": 8900,
      "hygiene": 8901,
      "gangliosidosis": 8902,
      "trichomoniasis": 8903,
      "165": 8904,
      "637": 8905,
      "656": 8906,
      "733": 8907,
      "830": 8908,
      "A3": 8909,
      "A81": 8910,
      "A56": 8911,
      "A23": 8912,
      "A15": 8913,
      "A66": 8914,
      "B33": 8915,
      "B95": 8916,
      "C46": 8917,
      "C71": 8918,
      "C63": 8919,
      "C18": 8920,
      "C67": 8921,
      "D12": 8922,
      "D10": 8923,
      "D13": 8924,
      "D80": 8925,
      "D07": 8926,
      "E61": 8927,
      "E50": 8928,
      "E34": 8929,
      "E80": 8930,
      "F44": 8931,
      "F45": 8932,
      "F06": 8933,
      "G71": 8934,
      "G24": 8935,
      "G89": 8936,
      "G54": 8937,
      "I42": 8938,
      "I51": 8939,
      "I49": 8940,
      "I44": 8941,
      "I75": 8942,
      "J20": 8943,
      "J38": 8944,
      "J67": 8945,
      "K00": 8946,
      "L49": 8947,
      "L81": 8948,
      "M32": 8949,
      "M49": 8950,
      "M45": 8951,
      "M95": 8952,
      "N02": 8953,
      "N01": 8954,
      "N36": 8955,
      "N00": 8956,
      "N06": 8957,
      "N05": 8958,
      "N04": 8959,
      "N03": 8960,
      "N07": 8961,
      "N28": 8962,
      "O89": 8963,
      "O90": 8964,
      "O66": 8965,
      "O74": 8966,
      "O75": 8967,
      "P52": 8968,
      "P92": 8969,
      "P01": 8970,
      "P36": 8971,
      "P29": 8972,
      "P04": 8973,
      "P96": 8974,
      "P78": 8975,
      "Q43": 8976,
      "Q50": 8977,
      "Q05": 8978,
      "Q79": 8979,
      "Q18": 8980,
      "Q77": 8981,
      "R46": 8982,
      "R89": 8983,
      "R86": 8984,
      "R84": 8985,
      "X11": 8986,
      "X39": 8987,
      "Y90": 8988,
      "Y84": 8989,
      "Z11": 8990,
      "Z43": 8991,
      "Z59": 8992,
      "Z15": 8993,
      "Z04": 8994,
      "Z03": 8995,
      "Z67": 8996,
      "Z88": 8997,
      "apartment": 8998,
      "bum": 8999,
      "bling": 9000,
      "bruc": 9001,
      "cur": 9002,
      "climb": 9003,
      "eos": 9004,
      "fans": 9005,
      "htl": 9006,
      "mous": 9007,
      "nal": 9008,
      "omp": 9009,
      "oocy": 9010,
      "sation": 9011,
      "erb": 9012,
      "ere": 9013,
      "onium": 9014,
      "oncho": 9015,
      "unia": 9016,
      "rehen": 9017,
      "ano": 9018,
      "orgement": 9019,
      "tered": 9020,
      "cochlear": 9021,
      "riasis": 9022,
      "wil": 9023,
      "sto": 9024,
      "sty": 9025,
      "stall": 9026,
      "nondis": 9027,
      "depolar": 9028,
      "aster": 9029,
      "percent": 9030,
      "vege": 9031,
      "bial": 9032,
      "malocclusion": 9033,
      "conjo": 9034,
      "confused": 9035,
      "idoses": 9036,
      "vertical": 9037,
      "vernal": 9038,
      "extrinsic": 9039,
      "exanth": 9040,
      "never": 9041,
      "cauda": 9042,
      "115": 9043,
      "128A": 9044,
      "128D": 9045,
      "128S": 9046,
      "cercia": 9047,
      "020": 9048,
      "eys": 9049,
      "423A": 9050,
      "424A": 9051,
      "424D": 9052,
      "424S": 9053,
      "423D": 9054,
      "423S": 9055,
      "323A": 9056,
      "324A": 9057,
      "324D": 9058,
      "324S": 9059,
      "323D": 9060,
      "323S": 9061,
      "328A": 9062,
      "320A": 9063,
      "320D": 9064,
      "320S": 9065,
      "osomiasis": 9066,
      "310": 9067,
      "314A": 9068,
      "314D": 9069,
      "314S": 9070,
      "318A": 9071,
      "225A": 9072,
      "225D": 9073,
      "225S": 9074,
      "obeys": 9075,
      "rong": 9076,
      "lyme": 9077,
      "415A": 9078,
      "414D": 9079,
      "414S": 9080,
      "arthria": 9081,
      "hemophil": 9082,
      "hemangioma": 9083,
      "515A": 9084,
      "515D": 9085,
      "515S": 9086,
      "510A": 9087,
      "510D": 9088,
      "510S": 9089,
      "ears": 9090,
      "multiline": 9091,
      "opharyngeal": 9092,
      "apism": 9093,
      "818A": 9094,
      "610": 9095,
      "615A": 9096,
      "615D": 9097,
      "615S": 9098,
      "333A": 9099,
      "334A": 9100,
      "334D": 9101,
      "334S": 9102,
      "333D": 9103,
      "333S": 9104,
      "presby": 9105,
      "105A": 9106,
      "105D": 9107,
      "105S": 9108,
      "06XA": 9109,
      "06XD": 9110,
      "06XS": 9111,
      "062A": 9112,
      "062D": 9113,
      "062S": 9114,
      "lymphadenitis": 9115,
      "currently": 9116,
      "713": 9117,
      "71XA": 9118,
      "71XD": 9119,
      "71XS": 9120,
      "cords": 9121,
      "tubulo": 9122,
      "63XA": 9123,
      "63XD": 9124,
      "63XS": 9125,
      "metatarsus": 9126,
      "53XA": 9127,
      "53XD": 9128,
      "53XS": 9129,
      "inflammations": 9130,
      "bleb": 9131,
      "hypersecretion": 9132,
      "neuroma": 9133,
      "neuropathic": 9134,
      "izes": 9135,
      "reactions": 9136,
      "atherosclerotic": 9137,
      "cardia": 9138,
      "cardio": 9139,
      "188": 9140,
      "esthesia": 9141,
      "structures": 9142,
      "enterostomy": 9143,
      "localizes": 9144,
      "fluency": 9145,
      "immunological": 9146,
      "8X9A": 9147,
      "8X9D": 9148,
      "8X9S": 9149,
      "recru": 9150,
      "85XA": 9151,
      "85XD": 9152,
      "85XS": 9153,
      "glandular": 9154,
      "mandibular": 9155,
      "mega": 9156,
      "marfans": 9157,
      "001B": 9158,
      "031B": 9159,
      "1315": 9160,
      "chemicals": 9161,
      "erythro": 9162,
      "vagin": 9163,
      "vaginitis": 9164,
      "blastomycosis": 9165,
      "288": 9166,
      "priapism": 9167,
      "bulbar": 9168,
      "141G": 9169,
      "141K": 9170,
      "141P": 9171,
      "keratosis": 9172,
      "142G": 9173,
      "142K": 9174,
      "142P": 9175,
      "dyspare": 9176,
      "88XA": 9177,
      "88XD": 9178,
      "88XS": 9179,
      "esophagostomy": 9180,
      "highway": 9181,
      "vulvo": 9182,
      "adrenoleukodystrophy": 9183,
      "mutilation": 9184,
      "6X5A": 9185,
      "6X5D": 9186,
      "6X5S": 9187,
      "6X6A": 9188,
      "6X6D": 9189,
      "6X6S": 9190,
      "olith": 9191,
      "reported": 9192,
      "incomprehen": 9193,
      "engorgement": 9194,
      "oriented": 9195,
      "activation": 9196,
      "walk": 9197,
      "influenzae": 9198,
      "amebiasis": 9199,
      "035A": 9200,
      "035D": 9201,
      "035S": 9202,
      "841A": 9203,
      "841D": 9204,
      "841S": 9205,
      "mucopurulent": 9206,
      "061A": 9207,
      "061D": 9208,
      "061S": 9209,
      "842A": 9210,
      "842D": 9211,
[...]
